<unk>	0
<s>	0
</s>	0
in	-0
er	-1
▁$	-2
or	-3
on	-4
an	-5
▁r	-6
ja	-7
va	-8
ti	-9
java	-10
co	-11
▁=	-12
le	-13
al	-14
org	-15
ang	-16
et	-17
en	-18
st	-19
lang	-20
com	-21
ar	-22
ap	-23
ing	-24
tr	-25
am	-26
vo	-27
ec	-28
es	-29
.<	-30
ac	-31
▁java	-32
at	-33
>(	-34
ro	-35
ke	-36
to	-37
vi	-38
voke	-39
invoke	-40
Str	-41
)>(	-42
tion	-43
int	-44
String	-45
de	-46
oo	-47
as	-48
▁org	-49
il	-50
alinvoke	-51
he	-52
ur	-53
az	-54
li	-55
▁i	-56
der	-57
azon	-58
ws	-59
▁g	-60
til	-61
te	-62
0.<	-63
ache	-64
util	-65
ser	-66
aws	-67
amazon	-68
amazonaws	-69
▁com	-70
tu	-71
vir	-72
ce	-73
ect	-74
virtu	-75
▁virtu	-76
▁virtualinvoke	-77
roto	-78
▁int	-79
apache	-80
im	-81
ode	-82
Bu	-83
it	-84
se	-85
ent	-86
ject	-87
▁:	-88
▁@	-89
▁:=	-90
re	-91
ilder	-92
)>()	-93
bject	-94
Builder	-95
par	-96
ces	-97
sh	-98
Re	-99
Object	-100
pl	-101
ble	-102
pen	-103
In	-104
ate	-105
col	-106
()>()	-107
is	-108
urn	-109
▁<	-110
odel	-111
ast	-112
th	-113
proto	-114
eturn	-115
un	-116
▁return	-117
ag	-118
servi	-119
▁go	-120
▁goto	-121
▁n	-122
el	-123
model	-124
Map	-125
ch	-126
si	-127
lo	-128
▁b	-129
ue	-130
services	-131
sp	-132
ation	-133
id	-134
Con	-135
gle	-136
oogle	-137
google	-138
ut	-139
lean	-140
able	-141
lec	-142
oolean	-143
ul	-144
ern	-145
lip	-146
ad	-147
lipse	-148
eclipse	-149
eter	-150
ri	-151
ameter	-152
ist	-153
void	-154
▁void	-155
yp	-156
all	-157
xt	-158
StringBuilder	-159
impl	-160
ml	-161
bu	-162
parameter	-163
▁boolean	-164
fi	-165
▁if	-166
ol	-167
ore	-168
this	-169
ash	-170
ed	-171
tic	-172
open	-173
ernal	-174
▁get	-175
ter	-176
▁0	-177
arsh	-178
arshall	-179
ype	-180
collec	-181
son	-182
ace	-183
Ex	-184
internal	-185
que	-186
ew	-187
orm	-188
List	-189
ans	-190
quest	-191
ption	-192
per	-193
Request	-194
)>($	-195
Type	-196
ase	-197
St	-198
eci	-199
ck	-200
▁sp	-201
Proto	-202
Res	-203
xml	-204
comp	-205
▁speci	-206
▁specialinvoke	-207
ay	-208
form	-209
[]	-210
ong	-211
core	-212
face	-213
om	-214
buf	-215
tor	-216
um	-217
erface	-218
ort	-219
protobuf	-220
▁interface	-221
▁interfaceinvoke	-222
cri	-223
2.<	-224
text	-225
protocol	-226
up	-227
▁(	-228
0:	-229
Hash	-230
lient	-231
io	-232
fast	-233
1.<	-234
con	-235
appen	-236
ator	-237
Lo	-238
Un	-239
imi	-240
age	-241
ub	-242
ata	-243
En	-244
ception	-245
Im	-246
ass	-247
Par	-248
mon	-249
yte	-250
Fi	-251
▁new	-252
ht	-253
10	-254
ine	-255
init	-256
and	-257
▁st	-258
od	-259
lass	-260
ull	-261
sion	-262
ver	-263
ss	-264
atic	-265
ack	-266
ess	-267
utable	-268
iler	-269
Ch	-270
base	-271
ade	-272
pr	-273
oop	-274
tim	-275
had	-276
tions	-277
common	-278
▁static	-279
Set	-280
▁staticinvoke	-281
hadoop	-282
ty	-283
ft	-284
shade	-285
arshaller	-286
Pro	-287
Exception	-288
ult	-289
compiler	-290
api	-291
2.	-292
trans	-293
11	-294
ma	-295
Json	-296
ment	-297
jd	-298
▁==	-299
gen	-300
ve	-301
To	-302
fig	-303
crip	-304
12	-305
13	-306
ou	-307
str	-308
Ser	-309
De	-310
uc	-311
▁null	-312
ence	-313
14	-314
transform	-315
bo	-316
time	-317
fo	-318
fer	-319
ant	-320
collect	-321
Context	-322
▁l	-323
Met	-324
arch	-325
▁[	-326
qu	-327
)>("	-328
ic	-329
gine	-330
▁1	-331
Info	-332
?=	-333
Class	-334
▁[?=	-335
em	-336
sc	-337
ouble	-338
iz	-339
eld	-340
!=	-341
▁!=	-342
be	-343
code	-344
jdt	-345
net	-346
▁c	-347
boss	-348
jboss	-349
ex	-350
dsi	-351
")	-352
untime	-353
Impl	-354
unimi	-355
fastutil	-356
ler	-357
Nam	-358
ols	-359
our	-360
ken	-361
Val	-362
Ar	-363
Se	-364
15	-365
ction	-366
Protos	-367
Des	-368
ind	-369
po	-370
put	-371
collections	-372
Unm	-373
ght	-374
Iter	-375
search	-376
ger	-377
Int	-378
map	-379
ated	-380
20	-381
hash	-382
yn	-383
Field	-384
16	-385
Token	-386
runtime	-387
eam	-388
val	-389
Client	-390
Stream	-391
actor	-392
cast	-393
ot	-394
au	-395
ext	-396
andler	-397
rep	-398
1)	-399
Unmarshaller	-400
ource	-401
Marshall	-402
Result	-403
ov	-404
azel	-405
azelcast	-406
tive	-407
3.<	-408
loat	-409
Byte	-410
Com	-411
Node	-412
hft	-413
openhft	-414
ra	-415
hazelcast	-416
ork	-417
jack	-418
row	-419
cation	-420
ray	-421
Char	-422
mutable	-423
log	-424
Data	-425
append	-426
18	-427
▁append	-428
act	-429
cess	-430
Config	-431
lr	-432
antlr	-433
actory	-434
vice	-435
Sh	-436
17	-437
1:	-438
Mess	-439
ir	-440
Long	-441
appengine	-442
try	-443
light	-444
astic	-445
uby	-446
ession	-447
Name	-448
tp	-449
hbase	-450
▁"	-451
0)	-452
▁s	-453
ance	-454
client	-455
aged	-456
Iterator	-457
unction	-458
>()>()	-459
Marshalling	-460
Col	-461
Service	-462
Parser	-463
ovy	-464
roovy	-465
Entry	-466
Factory	-467
day	-468
char	-469
daylight	-470
opendaylight	-471
▁long	-472
Value	-473
elastic	-474
ackaged	-475
sist	-476
pro	-477
parser	-478
Ab	-479
▁net	-480
aster	-481
19	-482
KV	-483
Ke	-484
ib	-485
Message	-486
State	-487
yang	-488
erated	-489
ree	-490
ure	-491
As	-492
ram	-493
Abstr	-494
Abstract	-495
eb	-496
pon	-497
Key	-498
Double	-499
ader	-500
▁+	-501
ber	-502
cript	-503
forg	-504
forge	-505
urr	-506
jackson	-507
ule	-508
repackaged	-509
HashMap	-510
beans	-511
javas	-512
ql	-513
2)	-514
faster	-515
fasterxml	-516
urrent	-517
low	-518
ple	-519
jar	-520
4.	-521
Tree	-522
GO	-523
criptor	-524
Th	-525
itor	-526
Array	-527
File	-528
vent	-529
Sc	-530
ted	-531
Log	-532
ync	-533
._	-534
imitive	-535
br	-536
Float	-537
Handler	-538
Short	-539
Up	-540
stance	-541
dro	-542
of	-543
dex	-544
JsonUnmarshaller	-545
aliz	-546
elasticsearch	-547
▁d	-548
ith	-549
MarshallingInfo	-550
4.<	-551
arn	-552
primitive	-553
hod	-554
drools	-555
roaster	-556
xmlbeans	-557
peration	-558
Mutable	-559
Upd	-560
▁it	-561
roup	-562
ook	-563
atch	-564
Id	-565
ath	-566
ery	-567
Descriptor	-568
Collec	-569
oc	-570
javascript	-571
jr	-572
jruby	-573
ponse	-574
ain	-575
ord	-576
Separ	-577
red	-578
let	-579
MapGO	-580
uration	-581
Response	-582
Separate	-583
SeparateKV	-584
ax	-585
ann	-586
▁byte	-587
Def	-588
Ac	-589
▁m	-590
Method	-591
gn	-592
ference	-593
ust	-594
sche	-595
lock	-596
An	-597
current	-598
Po	-599
HashSeparateKV	-600
pression	-601
us	-602
persist	-603
Tr	-604
1,	-605
",	-606
af	-607
Protocol	-608
5.<	-609
ity	-610
anch	-611
Gen	-612
▁f	-613
lement	-614
▁in	-615
Async	-616
▁z	-617
ric	-618
ument	-619
generated	-620
Man	-621
groovy	-622
▁th	-623
Operation	-624
Ad	-625
inding	-626
da	-627
ffer	-628
Code	-629
0[	-630
upp	-631
jp	-632
At	-633
branch	-634
ages	-635
http	-636
flow	-637
ager	-638
iter	-639
Boolean	-640
persistence	-641
fs	-642
ookup	-643
config	-644
Qu	-645
Reference	-646
Get	-647
sql	-648
22	-649
Marshaller	-650
umber	-651
Reg	-652
▁to	-653
Input	-654
ref	-655
ime	-656
Inte	-657
fram	-658
ework	-659
ker	-660
web	-661
ow	-662
tools	-663
ging	-664
data	-665
24	-666
Buffer	-667
▁throw	-668
3)	-669
app	-670
framework	-671
26	-672
Expression	-673
0,	-674
ava	-675
Function	-676
met	-677
Collection	-678
Proper	-679
format	-680
Integer	-681
reate	-682
mo	-683
21	-684
Inter	-685
__	-686
Wr	-687
orted	-688
25	-689
ault	-690
ask	-691
Event	-692
db	-693
ud	-694
Sche	-695
▁set	-696
shaded	-697
Element	-698
23	-699
ializ	-700
ream	-701
Immutable	-702
imple	-703
ST	-704
by	-705
leg	-706
1.	-707
Option	-708
Configuration	-709
scal	-710
06	-711
ring	-712
ror	-713
amb	-714
concurrent	-715
Throw	-716
IN	-717
Manager	-718
mis	-719
stream	-720
logging	-721
Open	-722
commons	-723
ambda	-724
▁-	-725
Descri	-726
Cont	-727
27	-728
lookup	-729
6.<	-730
Cache	-731
long	-732
Throwable	-733
res	-734
orts	-735
lect	-736
mas	-737
28	-738
CT	-739
Table	-740
JsonToken	-741
ues	-742
spring	-743
▁val	-744
Am	-745
ilter	-746
lic	-747
ge	-748
gh	-749
ernate	-750
Resource	-751
jpa	-752
loud	-753
stem	-754
ypes	-755
springframework	-756
ibernate	-757
mess	-758
schemas	-759
js	-760
29	-761
aus	-762
Time	-763
TreeMap	-764
▁is	-765
action	-766
▁io	-767
Ap	-768
mar	-769
Group	-770
Stat	-771
Mod	-772
otation	-773
hibernate	-774
len	-775
haus	-776
spi	-777
ector	-778
ati	-779
codehaus	-780
scala	-781
dom	-782
▁char	-783
WS	-784
Er	-785
Ht	-786
Amazon	-787
ven	-788
add	-789
yarn	-790
Co	-791
ip	-792
0]	-793
2:	-794
ithub	-795
github	-796
ild	-797
enti	-798
Binding	-799
Rep	-800
ystem	-801
Attr	-802
7.<	-803
Loc	-804
ry	-805
ene	-806
ection	-807
ucene	-808
object	-809
▁javax	-810
asm	-811
rics	-812
json	-813
handler	-814
xtext	-815
Out	-816
AWS	-817
function	-818
lucene	-819
wt	-820
adata	-821
2,	-822
Default	-823
$1	-824
ucumber	-825
ifi	-826
cat	-827
ked	-828
06.	-829
cucumber	-830
ard	-831
4)	-832
file	-833
work	-834
rev	-835
gr	-836
codegen	-837
Of	-838
jarjar	-839
Create	-840
Location	-841
Error	-842
ition	-843
ug	-844
▁e	-845
ange	-846
gth	-847
Base	-848
Update	-849
fin	-850
openxml	-851
als	-852
Http	-853
cloud	-854
Instance	-855
formats	-856
poi	-857
Schema	-858
so	-859
cache	-860
Exec	-861
lambda	-862
openxmlformats	-863
Cl	-864
2006.	-865
▁h	-866
mp	-867
Lin	-868
Form	-869
Filter	-870
▁add	-871
30	-872
qui	-873
Index	-874
ension	-875
Date	-876
Source	-877
store	-878
atis	-879
messages	-880
0>	-881
Writer	-882
▁re	-883
query	-884
engine	-885
ecord	-886
ob	-887
Parameter	-888
nio	-889
31	-890
boolean	-891
tom	-892
set	-893
collection	-894
Path	-895
Logger	-896
▁next	-897
man	-898
ecur	-899
Ann	-900
uster	-901
main	-902
reg	-903
InputStream	-904
jarjarantlr	-905
Task	-906
Trans	-907
reflect	-908
dfs	-909
8.<	-910
tex	-911
Java	-912
Doc	-913
sRequest	-914
jscomp	-915
server	-916
Query	-917
dk	-918
ail	-919
Describe	-920
Output	-921
No	-922
types	-923
isp	-924
Conn	-925
art	-926
handlers	-927
ite	-928
_>	-929
amlet	-930
Ob	-931
ka	-932
one	-933
eck	-934
QHashSeparateKV	-935
openjpa	-936
Mul	-937
exist	-938
maven	-939
read	-940
9.<	-941
▁_	-942
ML	-943
Gener	-944
cr	-945
Property	-946
▁double	-947
▁instance	-948
ies	-949
length	-950
legal	-951
ecurity	-952
Il	-953
Illegal	-954
ird	-955
▁length	-956
Ver	-957
gwt	-958
jet	-959
point	-960
Reader	-961
rai	-962
Sub	-963
rite	-964
party	-965
third	-966
thirdparty	-967
Ruby	-968
ab	-969
errai	-970
pace	-971
Status	-972
Format	-973
▁toString	-974
vider	-975
36	-976
▁has	-977
quals	-978
ties	-979
1]	-980
ings	-981
jasp	-982
sf	-983
jasper	-984
dat	-985
ary	-986
end	-987
tics	-988
supp	-989
5)	-990
▁this	-991
Access	-992
Xml	-993
lication	-994
cau	-995
edi	-996
Arg	-997
LHashSeparateKV	-998
texception	-999
caugh	-1000
caughtexception	-1001
lib	-1002
oot	-1003
Ext	-1004
istry	-1005
ispan	-1006
finispan	-1007
lete	-1008
misc	-1009
Updat	-1010
ibu	-1011
infinispan	-1012
3,	-1013
array	-1014
rom	-1015
Action	-1016
3.	-1017
ie	-1018
32	-1019
)]	-1020
ugin	-1021
ainer	-1022
Linked	-1023
cl	-1024
Interval	-1025
ion	-1026
aly	-1027
Options	-1028
Mem	-1029
Sdk	-1030
ibute	-1031
Store	-1032
Vis	-1033
we	-1034
37	-1035
Obj	-1036
get	-1037
$0>	-1038
Next	-1039
AsyncClient	-1040
byte	-1041
Util	-1042
redic	-1043
▁j	-1044
derby	-1045
now	-1046
Dec	-1047
▁equals	-1048
type	-1049
35	-1050
Call	-1051
Pr	-1052
ArrayList	-1053
34	-1054
jetty	-1055
unt	-1056
espace	-1057
ool	-1058
Internal	-1059
ER	-1060
raw	-1061
reports	-1062
javax	-1063
jasperreports	-1064
pm	-1065
▁groovy	-1066
Rule	-1067
Block	-1068
are	-1069
ucar	-1070
Pb	-1071
Metadata	-1072
hdfs	-1073
vel	-1074
objects	-1075
sis	-1076
Annotation	-1077
Updatable	-1078
cket	-1079
Al	-1080
fe	-1081
Delete	-1082
Argument	-1083
()>()]	-1084
nam	-1085
cop	-1086
Per	-1087
out	-1088
ingml	-1089
min	-1090
pc	-1091
alle	-1092
Tag	-1093
Enum	-1094
und	-1095
Be	-1096
▁>	-1097
Sp	-1098
gu	-1099
lid	-1100
double	-1101
bc	-1102
orage	-1103
38	-1104
Web	-1105
ee	-1106
yle	-1107
Or	-1108
▁scala	-1109
ON	-1110
struc	-1111
amel	-1112
allel	-1113
▁ex	-1114
jg	-1115
inter	-1116
monitor	-1117
valid	-1118
Attribute	-1119
▁value	-1120
Version	-1121
Vi	-1122
OpenHashMap	-1123
vlet	-1124
tes	-1125
Bi	-1126
jdbc	-1127
way	-1128
Generated	-1129
short	-1130
Iterable	-1131
6)	-1132
▁w	-1133
mand	-1134
user	-1135
op	-1136
Job	-1137
Sorted	-1138
RB	-1139
redicate	-1140
plugin	-1141
ron	-1142
39	-1143
os	-1144
Add	-1145
)[	-1146
XML	-1147
bit	-1148
00	-1149
tem	-1150
For	-1151
▁newarray	-1152
Serializ	-1153
ari	-1154
Que	-1155
ino	-1156
annel	-1157
Simple	-1158
Server	-1159
AV	-1160
licy	-1161
Le	-1162
User	-1163
stant	-1164
cont	-1165
33	-1166
ali	-1167
▁lengthof	-1168
App	-1169
ne	-1170
bug	-1171
He	-1172
Au	-1173
cod	-1174
Loader	-1175
Comp	-1176
rh	-1177
ution	-1178
ute	-1179
ustom	-1180
medi	-1181
block	-1182
▁")	-1183
process	-1184
ile	-1185
ateway	-1186
Metrics	-1187
sw	-1188
trol	-1189
Document	-1190
Queue	-1191
ape	-1192
Model	-1193
test	-1194
rhino	-1195
security	-1196
7)	-1197
▁de	-1198
ory	-1199
vert	-1200
og	-1201
ener	-1202
builder	-1203
bind	-1204
if	-1205
class	-1206
service	-1207
ds	-1208
rab	-1209
End	-1210
camel	-1211
Connection	-1212
rabbit	-1213
4,	-1214
index	-1215
Session	-1216
jackrabbit	-1217
Custom	-1218
des	-1219
key	-1220
Registry	-1221
tree	-1222
QName	-1223
Values	-1224
Det	-1225
Match	-1226
Provider	-1227
simple	-1228
AVL	-1229
▁case	-1230
Parallel	-1231
Defin	-1232
2]	-1233
▁instanceof	-1234
soft	-1235
olver	-1236
lar	-1237
access	-1238
View	-1239
Content	-1240
Policy	-1241
AST	-1242
Pl	-1243
Cluster	-1244
Process	-1245
RBTreeMap	-1246
▁bu	-1247
hel	-1248
Module	-1249
Text	-1250
sitor	-1251
Visitor	-1252
ost	-1253
Multi	-1254
afka	-1255
att	-1256
agement	-1257
ature	-1258
sl	-1259
Container	-1260
ill	-1261
Identi	-1262
plate	-1263
float	-1264
UR	-1265
3:	-1266
source	-1267
sqldb	-1268
hsqldb	-1269
▁hasNext	-1270
Properties	-1271
▁marshall	-1272
ign	-1273
javaparser	-1274
quibase	-1275
nc	-1276
unit	-1277
Vari	-1278
Tem	-1279
8)	-1280
Generator	-1281
ly	-1282
40	-1283
anner	-1284
ized	-1285
aph	-1286
check	-1287
atistics	-1288
AVLTreeMap	-1289
ale	-1290
ParallelKV	-1291
From	-1292
HandlerContext	-1293
Dat	-1294
10.<	-1295
System	-1296
sum	-1297
▁-1	-1298
html	-1299
wea	-1300
AR	-1301
Definition	-1302
Region	-1303
Extension	-1304
Ref	-1305
xy	-1306
adin	-1307
With	-1308
attern	-1309
car	-1310
Statement	-1311
ping	-1312
liquibase	-1313
kafka	-1314
IllegalArgument	-1315
catal	-1316
By	-1317
event	-1318
quence	-1319
Bean	-1320
Local	-1321
serializ	-1322
DB	-1323
▁short	-1324
iot	-1325
word	-1326
tin	-1327
OperationInfo	-1328
ateg	-1329
▁put	-1330
Range	-1331
storage	-1332
analy	-1333
dm	-1334
utils	-1335
ING	-1336
Thread	-1337
Lite	-1338
Sing	-1339
Yarn	-1340
Null	-1341
Variable	-1342
cope	-1343
▁>=	-1344
Stax	-1345
nr	-1346
namespace	-1347
Supp	-1348
Sett	-1349
ress	-1350
Listener	-1351
port	-1352
48	-1353
nown	-1354
guava	-1355
AT	-1356
izer	-1357
webapp	-1358
utor	-1359
AL	-1360
MarshallingType	-1361
MarshallLocation	-1362
9)	-1363
vaadin	-1364
site	-1365
back	-1366
ams	-1367
mark	-1368
doc	-1369
known	-1370
ints	-1371
ware	-1372
Predicate	-1373
Dir	-1374
RequestMetrics	-1375
enc	-1376
Record	-1377
gener	-1378
databind	-1379
▁p	-1380
11.<	-1381
HashParallelKV	-1382
ynam	-1383
SS	-1384
metrics	-1385
Command	-1386
StaxUnmarshaller	-1387
Count	-1388
management	-1389
sol	-1390
system	-1391
$1:	-1392
cogn	-1393
ze	-1394
cs	-1395
Line	-1396
ared	-1397
laration	-1398
FieldBuilder	-1399
Execution	-1400
Meta	-1401
Op	-1402
est	-1403
nap	-1404
47	-1405
Scope	-1406
Dis	-1407
verter	-1408
GeneratedMessage	-1409
list	-1410
Pool	-1411
kie	-1412
shot	-1413
Syn	-1414
SchemaType	-1415
napshot	-1416
schema	-1417
utes	-1418
uce	-1419
umn	-1420
3]	-1421
Hel	-1422
parse	-1423
Channel	-1424
mit	-1425
gi	-1426
46	-1427
cep	-1428
boot	-1429
StringBuffer	-1430
Compar	-1431
active	-1432
compon	-1433
component	-1434
mapred	-1435
pect	-1436
EN	-1437
Hamlet	-1438
hamlet	-1439
record	-1440
di	-1441
supported	-1442
45	-1443
AsyncHandler	-1444
ibutes	-1445
Stack	-1446
Sequence	-1447
ts	-1448
ide	-1449
Lock	-1450
yangtools	-1451
Pre	-1452
mail	-1453
▁un	-1454
Flow	-1455
ach	-1456
Adap	-1457
Enti	-1458
▁float	-1459
conn	-1460
immutable	-1461
atform	-1462
osgi	-1463
Bit	-1464
kin	-1465
oved	-1466
Template	-1467
Rem	-1468
Application	-1469
her	-1470
Unsupported	-1471
cryp	-1472
▁si	-1473
49	-1474
OutputStream	-1475
Run	-1476
fier	-1477
annotation	-1478
So	-1479
Member	-1480
07	-1481
[],	-1482
MapFactory	-1483
tif	-1484
Messages	-1485
ame	-1486
ize	-1487
Emp	-1488
Big	-1489
sage	-1490
Empty	-1491
astore	-1492
codec	-1493
44	-1494
lex	-1495
xf	-1496
knownField	-1497
12.<	-1498
positor	-1499
mod	-1500
Removed	-1501
ns	-1502
ced	-1503
cxf	-1504
Master	-1505
plo	-1506
ategy	-1507
Bas	-1508
Search	-1509
Column	-1510
yc	-1511
5.	-1512
draw	-1513
sor	-1514
Concurrent	-1515
sing	-1516
DescriptorProtos	-1517
▁t	-1518
Header	-1519
aspect	-1520
mock	-1521
bytes	-1522
Work	-1523
jo	-1524
sumer	-1525
JR	-1526
ffi	-1527
Case	-1528
values	-1529
host	-1530
1[	-1531
aspectj	-1532
Snapshot	-1533
Mapping	-1534
▁size	-1535
Pack	-1536
longs	-1537
Entity	-1538
cp	-1539
solr	-1540
jm	-1541
sed	-1542
slf	-1543
Number	-1544
Utils	-1545
ansp	-1546
RE	-1547
dir	-1548
find	-1549
Start	-1550
Helper	-1551
sResult	-1552
ources	-1553
uture	-1554
doubles	-1555
jax	-1556
chars	-1557
floats	-1558
shorts	-1559
line	-1560
Settings	-1561
43	-1562
pository	-1563
greg	-1564
Test	-1565
Metric	-1566
Valid	-1567
context	-1568
servlet	-1569
▁access	-1570
Unit	-1571
TypeBinding	-1572
iltin	-1573
cover	-1574
ina	-1575
▁getC	-1576
xbase	-1577
Database	-1578
binding	-1579
ServicePb	-1580
tomcat	-1581
▁of	-1582
Item	-1583
QL	-1584
Cur	-1585
ox	-1586
mb	-1587
Pattern	-1588
gateway	-1589
▁nextToken	-1590
Proxy	-1591
support	-1592
eas	-1593
inary	-1594
cedure	-1595
chron	-1596
catalina	-1597
▁valueOf	-1598
5,	-1599
mapreduce	-1600
fish	-1601
Endpoint	-1602
lassfish	-1603
LO	-1604
andle	-1605
ded	-1606
WebService	-1607
drawingml	-1608
64	-1609
13.<	-1610
Future	-1611
AN	-1612
itch	-1613
glassfish	-1614
tifi	-1615
math	-1616
Remo	-1617
Description	-1618
Fl	-1619
edu	-1620
bugs	-1621
findbugs	-1622
umd	-1623
41	-1624
Constant	-1625
lob	-1626
Ma	-1627
UnknownField	-1628
rammar	-1629
AmazonWebService	-1630
▁exit	-1631
ectory	-1632
Sign	-1633
timap	-1634
openide	-1635
Strategy	-1636
Consumer	-1637
arget	-1638
jgit	-1639
axis	-1640
air	-1641
Declaration	-1642
ms	-1643
roups	-1644
50	-1645
42	-1646
Mo	-1647
Coded	-1648
_1	-1649
Control	-1650
ansport	-1651
▁hash	-1652
Auth	-1653
extension	-1654
OpenCustom	-1655
IO	-1656
Executor	-1657
arg	-1658
gri	-1659
14.<	-1660
Not	-1661
Adapter	-1662
ProtocolProtos	-1663
cel	-1664
Runtime	-1665
builtin	-1666
bean	-1667
configuration	-1668
TypeStore	-1669
[0]	-1670
SortedMap	-1671
Size	-1672
wordprocess	-1673
53	-1674
4]	-1675
rs	-1676
Resolver	-1677
lue	-1678
Converter	-1679
>]	-1680
software	-1681
JS	-1682
Modifi	-1683
Check	-1684
▁exitmonitor	-1685
Descriptors	-1686
wordprocessingml	-1687
serialization	-1688
ved	-1689
Parent	-1690
ponent	-1691
task	-1692
openflow	-1693
▁P	-1694
bon	-1695
iapi	-1696
lin	-1697
ResponseProto	-1698
marshall	-1699
▁ucar	-1700
amodel	-1701
params	-1702
helger	-1703
unc	-1704
Detail	-1705
systems	-1706
Fe	-1707
tition	-1708
platform	-1709
Point	-1710
On	-1711
StateException	-1712
Dom	-1713
▁class	-1714
ID	-1715
terator	-1716
uct	-1717
ound	-1718
rule	-1719
Component	-1720
Gr	-1721
Read	-1722
ME	-1723
sure	-1724
Single	-1725
jpql	-1726
ui	-1727
loc	-1728
stry	-1729
apestry	-1730
pend	-1731
Cod	-1732
project	-1733
stra	-1734
weld	-1735
jb	-1736
iti	-1737
▁2	-1738
6,	-1739
Address	-1740
Serializer	-1741
load	-1742
mission	-1743
ko	-1744
ploy	-1745
abel	-1746
gration	-1747
df	-1748
ClientException	-1749
tapestry	-1750
oon	-1751
jgroups	-1752
rice	-1753
ku	-1754
cluster	-1755
10)	-1756
Admin	-1757
Level	-1758
easy	-1759
Nx	-1760
xquery	-1761
gment	-1762
Cursor	-1763
trace	-1764
Synchron	-1765
rest	-1766
generator	-1767
NoRemoved	-1768
jmx	-1769
netty	-1770
RequestProto	-1771
apper	-1772
arker	-1773
sourceforge	-1774
[])>($	-1775
Write	-1776
pn	-1777
Invalid	-1778
tep	-1779
lose	-1780
atal	-1781
na	-1782
metadata	-1783
_0	-1784
usermodel	-1785
sign	-1786
Atom	-1787
esis	-1788
15.<	-1789
ssh	-1790
16.<	-1791
▁create	-1792
wso	-1793
inpoint	-1794
maker	-1795
Attributes	-1796
sci	-1797
sagemaker	-1798
javassist	-1799
entity	-1800
kuali	-1801
bytecode	-1802
Comple	-1803
Sum	-1804
carbon	-1805
pmd	-1806
Ass	-1807
UnknownFieldSet	-1808
▁key	-1809
Su	-1810
LE	-1811
dr	-1812
ByteBuffer	-1813
css	-1814
Order	-1815
ceptor	-1816
libr	-1817
mi	-1818
nd	-1819
▁build	-1820
Change	-1821
heet	-1822
group	-1823
operation	-1824
ia	-1825
▁hashCode	-1826
Report	-1827
sition	-1828
58	-1829
Transaction	-1830
ility	-1831
▁write	-1832
match	-1833
▁iterator	-1834
ix	-1835
Na	-1836
IND	-1837
session	-1838
sshd	-1839
57	-1840
Ter	-1841
▁read	-1842
[$	-1843
erge	-1844
Target	-1845
HashSet	-1846
Synchronized	-1847
ight	-1848
andard	-1849
mic	-1850
apphost	-1851
apphosting	-1852
sch	-1853
Batch	-1854
struction	-1855
objectweb	-1856
emf	-1857
Servlet	-1858
azy	-1859
17.<	-1860
older	-1861
emo	-1862
module	-1863
▁jnr	-1864
auth	-1865
Wrapper	-1866
Submap	-1867
Label	-1868
Exp	-1869
coder	-1870
4:	-1871
glue	-1872
5]	-1873
Repe	-1874
alized	-1875
afe	-1876
Types	-1877
Procedure	-1878
Summar	-1879
▁check	-1880
▁bit	-1881
Site	-1882
Processor	-1883
RubyObject	-1884
ers	-1885
59	-1886
roker	-1887
Transform	-1888
Comparator	-1889
ServiceProtos	-1890
▁en	-1891
unctions	-1892
6]	-1893
Ct	-1894
Load	-1895
pinpoint	-1896
clouds	-1897
factory	-1898
jclouds	-1899
ical	-1900
build	-1901
▁<=	-1902
abled	-1903
Put	-1904
All	-1905
BIND	-1906
proper	-1907
IRubyObject	-1908
BINDING	-1909
[])>(	-1910
▁cl	-1911
Parameters	-1912
lection	-1913
meta	-1914
Constra	-1915
location	-1916
▁test	-1917
shi	-1918
Locale	-1919
8.	-1920
enter	-1921
Mode	-1922
path	-1923
table	-1924
inject	-1925
osp	-1926
▁getName	-1927
orter	-1928
ff	-1929
weak	-1930
Socket	-1931
Print	-1932
Repeated	-1933
ations	-1934
11)	-1935
auto	-1936
Statistics	-1937
apigateway	-1938
vl	-1939
park	-1940
Identifier	-1941
protostream	-1942
av	-1943
pmml	-1944
inder	-1945
RegistryLite	-1946
CodedInputStream	-1947
▁jj	-1948
Summary	-1949
Accessor	-1950
Sched	-1951
ION	-1952
Net	-1953
Fram	-1954
Recogn	-1955
56	-1956
Deleg	-1957
▁liquibase	-1958
EC	-1959
analysis	-1960
_1__	-1961
ito	-1962
expr	-1963
mt	-1964
openflowplugin	-1965
ernel	-1966
dmn	-1967
▁cap	-1968
ner	-1969
04	-1970
content	-1971
Ag	-1972
weakref	-1973
Sw	-1974
Rpc	-1975
One	-1976
12)	-1977
ell	-1978
oci	-1979
Namen	-1980
Permission	-1981
EL	-1982
lector	-1983
Multimap	-1984
Repository	-1985
ifiable	-1986
Namenode	-1987
ClientNamenode	-1988
Image	-1989
55	-1990
vertx	-1991
SQL	-1992
aset	-1993
Vector	-1994
sm	-1995
Bag	-1996
Feature	-1997
Lex	-1998
gp	-1999
dition	-2000
DateTime	-2001
blem	-2002
control	-2003
statistics	-2004
ByteString	-2005
OR	-2006
18.<	-2007
And	-2008
tika	-2009
URL	-2010
▁testExpression	-2011
tifact	-2012
▁bitField	-2013
Style	-2014
parsing	-2015
0_>	-2016
odes	-2017
Row	-2018
OM	-2019
Shared	-2020
econ	-2021
ains	-2022
Atomic	-2023
constant	-2024
covery	-2025
lexmark	-2026
Names	-2027
MetricType	-2028
Interface	-2029
dynam	-2030
Analy	-2031
cription	-2032
for	-2033
ock	-2034
Standard	-2035
htrace	-2036
MasterProtos	-2037
Asser	-2038
Oper	-2039
weaver	-2040
Project	-2041
▁def	-2042
Script	-2043
resources	-2044
CE	-2045
compile	-2046
▁type	-2047
eline	-2048
opt	-2049
AD	-2050
Lorg	-2051
strap	-2052
▁F	-2053
vlad	-2054
vladsch	-2055
flexmark	-2056
waf	-2057
Parse	-2058
Di	-2059
YarnProtos	-2060
kinesis	-2061
database	-2062
Package	-2063
provider	-2064
kernel	-2065
QHashParallelKV	-2066
reads	-2067
viron	-2068
aj	-2069
Bytes	-2070
13)	-2071
version	-2072
vironment	-2073
▁31	-2074
Constraint	-2075
TY	-2076
spark	-2077
▁parse	-2078
Gateway	-2079
fix	-2080
Identity	-2081
▁clone	-2082
Step	-2083
ply	-2084
Security	-2085
aml	-2086
zz	-2087
wer	-2088
ProtocolFactory	-2089
SdkJson	-2090
67	-2091
apl	-2092
cli	-2093
52	-2094
descriptor	-2095
60	-2096
count	-2097
Matcher	-2098
sight	-2099
Cell	-2100
54	-2101
000	-2102
node	-2103
Mon	-2104
acter	-2105
mer	-2106
▁log	-2107
async	-2108
Memory	-2109
Jo	-2110
Ro	-2111
FloatMapGO	-2112
alth	-2113
ymb	-2114
ibatis	-2115
atom	-2116
▁res	-2117
Invo	-2118
rig	-2119
ordin	-2120
lift	-2121
jf	-2122
DoubleMapGO	-2123
message	-2124
attr	-2125
ok	-2126
regex	-2127
htmlunit	-2128
2[	-2129
optapl	-2130
optaplanner	-2131
simplesystems	-2132
graph	-2133
UE	-2134
Pointer	-2135
bag	-2136
anc	-2137
AY	-2138
iver	-2139
write	-2140
mvel	-2141
Child	-2142
manager	-2143
Last	-2144
8,	-2145
▁S	-2146
Stats	-2147
constants	-2148
ClassLoader	-2149
Is	-2150
eper	-2151
refer	-2152
7,	-2153
_0__	-2154
Engine	-2155
Generic	-2156
)>(1)	-2157
LHashParallelKV	-2158
nx	-2159
8]	-2160
51	-2161
lobal	-2162
atomic	-2163
connect	-2164
CharSequence	-2165
lix	-2166
14.	-2167
ira	-2168
BitSet	-2169
email	-2170
Api	-2171
$2	-2172
geom	-2173
jod	-2174
ByteMapGO	-2175
Back	-2176
IntMapGO	-2177
CharMapGO	-2178
ShortMapGO	-2179
Auto	-2180
Namespace	-2181
packaged	-2182
19.<	-2183
)>(",	-2184
call	-2185
Recognizer	-2186
Unmod	-2187
Support	-2188
CallSite	-2189
RequestProtocol	-2190
Unmodifiable	-2191
Arn	-2192
Holder	-2193
identity	-2194
LongMapGO	-2195
Frame	-2196
HBase	-2197
micro	-2198
Grammar	-2199
1407	-2200
acon	-2201
value	-2202
7]	-2203
Character	-2204
field	-2205
arm	-2206
ody	-2207
works	-2208
icira	-2209
Pri	-2210
Switch	-2211
URI	-2212
amp	-2213
argo	-2214
ender	-2215
readsheet	-2216
SdkInternal	-2217
Codec	-2218
rad	-2219
exec	-2220
▁getCurrent	-2221
science	-2222
actions	-2223
argoyle	-2224
gargoyle	-2225
gargoylesoftware	-2226
valu	-2227
Compiler	-2228
Dynam	-2229
09	-2230
UL	-2231
Environment	-2232
aces	-2233
style	-2234
Datastore	-2235
ink	-2236
ph	-2237
Aggreg	-2238
Ali	-2239
nicira	-2240
spreadsheet	-2241
▁be	-2242
sail	-2243
mediacon	-2244
▁cmp	-2245
swing	-2246
Tags	-2247
Replication	-2248
formation	-2249
Binary	-2250
ush	-2251
zzly	-2252
Rest	-2253
alive	-2254
Pair	-2255
Compo	-2256
Domain	-2257
Construc	-2258
ency	-2259
medialive	-2260
Initi	-2261
reh	-2262
atalog	-2263
DE	-2264
istri	-2265
cldr	-2266
Lexer	-2267
140714.	-2268
Partition	-2269
SdkInternalList	-2270
oute	-2271
rds	-2272
UT	-2273
Assertion	-2274
moz	-2275
bus	-2276
mapper	-2277
illa	-2278
30.<	-2279
hub	-2280
Max	-2281
Modification	-2282
shared	-2283
▁default	-2284
AME	-2285
mozilla	-2286
▁start	-2287
ball	-2288
grizzly	-2289
21.<	-2290
nowball	-2291
plugins	-2292
no	-2293
El	-2294
ObjMapGO	-2295
filter	-2296
microsoft	-2297
▁cont	-2298
Profile	-2299
▁end	-2300
Aws	-2301
resteasy	-2302
Ra	-2303
otated	-2304
)>(0)	-2305
Ljava	-2306
istribu	-2307
VAL	-2308
9]	-2309
lish	-2310
20.<	-2311
losure	-2312
jline	-2313
jnr	-2314
Mapper	-2315
etch	-2316
odb	-2317
AP	-2318
sd	-2319
reem	-2320
alanc	-2321
Basic	-2322
▁index	-2323
▁remo	-2324
▁on	-2325
channel	-2326
reemarker	-2327
Bund	-2328
ClientProtos	-2329
Remove	-2330
rot	-2331
▁po	-2332
spreadsheetml	-2333
transport	-2334
gest	-2335
nl	-2336
fl	-2337
Color	-2338
▁4	-2339
dynamodb	-2340
▁8	-2341
ycle	-2342
Coun	-2343
ublish	-2344
Ed	-2345
Cap	-2346
Associ	-2347
ertifi	-2348
Spec	-2349
dynamodbv	-2350
vm	-2351
Lambda	-2352
hcache	-2353
▁6	-2354
Bound	-2355
Lookup	-2356
Route	-2357
Bundle	-2358
Speci	-2359
crypto	-2360
directory	-2361
Subs	-2362
Persist	-2363
5:	-2364
ssf	-2365
IOException	-2366
krad	-2367
bgp	-2368
▁0,	-2369
Actions	-2370
MapFactoryGO	-2371
$_	-2372
RuntimeException	-2373
error	-2374
iv	-2375
ected	-2376
stack	-2377
XmlObject	-2378
awt	-2379
jer	-2380
Schedule	-2381
igh	-2382
Optional	-2383
fset	-2384
MetaData	-2385
▁isEmpty	-2386
snowball	-2387
wi	-2388
Struct	-2389
Based	-2390
Join	-2391
lightsail	-2392
▁remove	-2393
ify	-2394
ront	-2395
ehcache	-2396
Collector	-2397
Lazy	-2398
tax	-2399
Tra	-2400
SortedSet	-2401
Formatter	-2402
▁a	-2403
Resol	-2404
imal	-2405
chime	-2406
ep	-2407
ech	-2408
Role	-2409
callsite	-2410
NullPointer	-2411
ister	-2412
14)	-2413
network	-2414
vation	-2415
▁values	-2416
rawl	-2417
events	-2418
ArrayMap	-2419
registry	-2420
52.	-2421
ba	-2422
null	-2423
domain	-2424
Signature	-2425
NAME	-2426
metamodel	-2427
iled	-2428
quick	-2429
▁close	-2430
Condition	-2431
shift	-2432
mf	-2433
date	-2434
cognito	-2435
Encryp	-2436
ier	-2437
nlp	-2438
SO	-2439
Handle	-2440
annotations	-2441
batch	-2442
Details	-2443
leton	-2444
▁C	-2445
bcel	-2446
68	-2447
opennlp	-2448
TokenManager	-2449
TaskQueue	-2450
ret	-2451
TypeReference	-2452
ipeline	-2453
element	-2454
ootstrap	-2455
mem	-2456
ting	-2457
analytics	-2458
predicate	-2459
Operator	-2460
Quot	-2461
lear	-2462
Storage	-2463
Callback	-2464
ating	-2465
Lay	-2466
ination	-2467
cate	-2468
22.<	-2469
Segment	-2470
ertificate	-2471
datastore	-2472
checkstyle	-2473
Non	-2474
coding	-2475
PE	-2476
ures	-2477
expression	-2478
ta	-2479
Scanner	-2480
Shape	-2481
hw	-2482
Ge	-2483
Build	-2484
dec	-2485
Ip	-2486
mac	-2487
securityhub	-2488
▁spoon	-2489
VALUE	-2490
)[1]	-2491
▁unmarshall	-2492
Inst	-2493
socket	-2494
mq	-2495
Deploy	-2496
MessageLite	-2497
Graph	-2498
xcontent	-2499
HBaseProtos	-2500
vpn	-2501
AssertionError	-2502
▁edu	-2503
▁name	-2504
quicksight	-2505
Invocation	-2506
place	-2507
3[	-2508
Constructor	-2509
9,	-2510
migration	-2511
SchemaTypeLoader	-2512
dmg	-2513
pupp	-2514
puppyc	-2515
puppycrawl	-2516
aggreg	-2517
ous	-2518
oxm	-2519
ization	-2520
Maps	-2521
XMLStream	-2522
Link	-2523
Clone	-2524
DescriptorProto	-2525
▁contains	-2526
Evalu	-2527
agger	-2528
Tim	-2529
here	-2530
tool	-2531
▁ST	-2532
command	-2533
admin	-2534
plex	-2535
MapEntry	-2536
[][]	-2537
sessions	-2538
keeper	-2539
mediaconvert	-2540
ymbol	-2541
Position	-2542
validation	-2543
▁builder	-2544
stat	-2545
ookeeper	-2546
ences	-2547
DatastorePb	-2548
Annotated	-2549
tification	-2550
Kind	-2551
mul	-2552
ive	-2553
joda	-2554
▁ma	-2555
zookeeper	-2556
sey	-2557
Network	-2558
resource	-2559
simpleemail	-2560
Dynamic	-2561
15)	-2562
pool	-2563
69	-2564
Page	-2565
▁getClass	-2566
queue	-2567
Ret	-2568
Tup	-2569
END	-2570
JsonOperation	-2571
ocker	-2572
▁getType	-2573
▁0)	-2574
Quota	-2575
Prod	-2576
Dest	-2577
FileSystem	-2578
encing	-2579
3$	-2580
▁current	-2581
Track	-2582
Ax	-2583
Dataset	-2584
SharedState	-2585
Monitor	-2586
Port	-2587
Tuple	-2588
JsonParser	-2589
own	-2590
Groovy	-2591
ResultSet	-2592
jts	-2593
inel	-2594
Composite	-2595
solrj	-2596
functions	-2597
ValueView	-2598
TokenStream	-2599
hp	-2600
XContent	-2601
sal	-2602
tech	-2603
65	-2604
dis	-2605
OP	-2606
change	-2607
health	-2608
ng	-2609
uage	-2610
Yang	-2611
rout	-2612
16)	-2613
ling	-2614
entinel	-2615
carrot	-2616
carrotsearch	-2617
autom	-2618
Directory	-2619
riter	-2620
▁getValue	-2621
66	-2622
IT	-2623
▁enter	-2624
Len	-2625
option	-2626
SE	-2627
Ph	-2628
Selector	-2629
top	-2630
26.<	-2631
▁sub	-2632
alk	-2633
ivy	-2634
resh	-2635
locationtech	-2636
4[	-2637
DataSource	-2638
15.	-2639
fication	-2640
JSON	-2641
agic	-2642
Native	-2643
ops	-2644
Scal	-2645
70	-2646
Singleton	-2647
vig	-2648
Transport	-2649
Red	-2650
felix	-2651
entic	-2652
▁mod	-2653
ified	-2654
loader	-2655
rst	-2656
swagger	-2657
container	-2658
79	-2659
erializ	-2660
okhttp	-2661
activej	-2662
tual	-2663
jaxrs	-2664
vision	-2665
lier	-2666
dbcp	-2667
HT	-2668
100	-2669
visitor	-2670
roid	-2671
ben	-2672
Alias	-2673
ExecutorService	-2674
android	-2675
Account	-2676
23.<	-2677
Import	-2678
sphere	-2679
rown	-2680
ReferenceBinding	-2681
63	-2682
ice	-2683
binary	-2684
otlin	-2685
FieldBuilderV	-2686
rew	-2687
Encryption	-2688
magic	-2689
brown	-2690
Global	-2691
werk	-2692
brownies	-2693
magicwerk	-2694
route	-2695
mosphere	-2696
imaj	-2697
openimaj	-2698
det	-2699
gis	-2700
Decimal	-2701
pth	-2702
job	-2703
ps	-2704
Hdfs	-2705
TYPE	-2706
exception	-2707
▁getLast	-2708
Reser	-2709
ates	-2710
front	-2711
idge	-2712
state	-2713
safe	-2714
sna	-2715
Offset	-2716
keyaml	-2717
snakeyaml	-2718
62	-2719
referencing	-2720
Such	-2721
lation	-2722
istory	-2723
Medi	-2724
kolo	-2725
boke	-2726
koloboke	-2727
NoSuch	-2728
Body	-2729
Counter	-2730
application	-2731
roject	-2732
Validator	-2733
onosp	-2734
onosproject	-2735
yangutils	-2736
▁con	-2737
Axis	-2738
▁9	-2739
Interceptor	-2740
ClientMessage	-2741
SwitchMap	-2742
▁not	-2743
Elastic	-2744
▁3	-2745
ecycle	-2746
jbpm	-2747
entinelValues	-2748
string	-2749
Enabled	-2750
▁getInstance	-2751
Symbol	-2752
61	-2753
Instan	-2754
rement	-2755
Protobuf	-2756
market	-2757
Destination	-2758
24.<	-2759
Qual	-2760
▁with	-2761
Prefix	-2762
switch	-2763
Top	-2764
ecker	-2765
Ops	-2766
Modify	-2767
iction	-2768
ojb	-2769
▁entermonitor	-2770
buffer	-2771
Remote	-2772
openl	-2773
lit	-2774
FieldAccessor	-2775
Controller	-2776
ictionary	-2777
pi	-2778
ective	-2779
CommandLine	-2780
Supplier	-2781
Maker	-2782
resol	-2783
me	-2784
17)	-2785
jersey	-2786
broker	-2787
Depend	-2788
dexlib	-2789
10,	-2790
Fast	-2791
Author	-2792
httpclient	-2793
grouping	-2794
temp	-2795
CharStream	-2796
arte	-2797
hppc	-2798
jst	-2799
arning	-2800
KeySet	-2801
Depth	-2802
Certificate	-2803
▁M	-2804
aries	-2805
▁nam	-2806
Reporter	-2807
77	-2808
BigList	-2809
)>(",")	-2810
fice	-2811
jstype	-2812
▁getNext	-2813
grib	-2814
ato	-2815
EntryView	-2816
▁for	-2817
pings	-2818
ED	-2819
Host	-2820
Bucket	-2821
ResourceRequest	-2822
Br	-2823
chart	-2824
istribution	-2825
plexus	-2826
Cre	-2827
ByteArray	-2828
jection	-2829
ability	-2830
Connector	-2831
xbean	-2832
input	-2833
spoon	-2834
ak	-2835
▁getDefault	-2836
Charset	-2837
We	-2838
apply	-2839
anced	-2840
▁bootstrap	-2841
librato	-2842
Trace	-2843
resolver	-2844
Part	-2845
xb	-2846
Comment	-2847
Parsed	-2848
marshalling	-2849
request	-2850
models	-2851
MethodBinding	-2852
controller	-2853
JP	-2854
mse	-2855
bera	-2856
msebera	-2857
asser	-2858
Objects	-2859
Collections	-2860
Artifact	-2861
EntryIterator	-2862
proxy	-2863
iness	-2864
property	-2865
artemis	-2866
ublisher	-2867
▁L	-2868
activemq	-2869
andom	-2870
78	-2871
scm	-2872
ParentElement	-2873
PrintStream	-2874
order	-2875
aun	-2876
alm	-2877
deploy	-2878
workflow	-2879
NxAction	-2880
view	-2881
25.<	-2882
▁pr	-2883
instruction	-2884
aunch	-2885
Common	-2886
datamodel	-2887
idp	-2888
cognitoidp	-2889
Deployment	-2890
inal	-2891
led	-2892
rehend	-2893
my	-2894
alize	-2895
1307	-2896
Transfer	-2897
properties	-2898
Wind	-2899
Fetch	-2900
AdminProtos	-2901
xsd	-2902
Problem	-2903
catalog	-2904
Html	-2905
▁find	-2906
▁input	-2907
Media	-2908
Nodes	-2909
zer	-2910
cf	-2911
Fail	-2912
Cop	-2913
office	-2914
Serialized	-2915
scaling	-2916
acked	-2917
Backup	-2918
vis	-2919
land	-2920
If	-2921
Device	-2922
Rec	-2923
iet	-2924
fill	-2925
bar	-2926
Direct	-2927
rpc	-2928
docker	-2929
autoscaling	-2930
name	-2931
Params	-2932
27.<	-2933
redshift	-2934
Cloud	-2935
▁END	-2936
▁ch	-2937
▁12	-2938
transaction	-2939
Assign	-2940
▁getMessage	-2941
reen	-2942
ags	-2943
Deserializ	-2944
anon	-2945
mockserver	-2946
Localized	-2947
libraries	-2948
Broker	-2949
etland	-2950
shetland	-2951
XmlOptions	-2952
ume	-2953
grammar	-2954
Length	-2955
hed	-2956
Arch	-2957
zip	-2958
FA	-2959
Rout	-2960
TL	-2961
HdfsProtos	-2962
visit	-2963
20)	-2964
[])	-2965
websocket	-2966
ilation	-2967
Merge	-2968
direct	-2969
iff	-2970
mes	-2971
attributes	-2972
Instruction	-2973
clu	-2974
1>	-2975
ThreadContext	-2976
ecore	-2977
Over	-2978
ExecutionContext	-2979
handle	-2980
jaxb	-2981
Javadoc	-2982
achine	-2983
Stop	-2984
token	-2985
ailed	-2986
▁1)	-2987
kotlin	-2988
18)	-2989
ause	-2990
AC	-2991
Cred	-2992
DR	-2993
dav	-2994
compress	-2995
Layout	-2996
modules	-2997
cis	-2998
▁from	-2999
cisco	-3000
ProtobufMessages	-3001
Replic	-3002
unk	-3003
Coordin	-3004
▁protocol	-3005
Xbase	-3006
Decoder	-3007
HttpResponse	-3008
75	-3009
Notification	-3010
▁state	-3011
Copy	-3012
gson	-3013
Clas	-3014
ls	-3015
80	-3016
ietf	-3017
rc	-3018
ssl	-3019
reflection	-3020
$(	-3021
ipc	-3022
BigDecimal	-3023
sax	-3024
ig	-3025
▁merge	-3026
)>("\	-3027
SER	-3028
pack	-3029
ifier	-3030
ulator	-3031
Aug	-3032
mentation	-3033
6:	-3034
ont	-3035
▁"\	-3036
alizer	-3037
Static	-3038
closure	-3039
charts	-3040
copy	-3041
Lang	-3042
Att	-3043
Validation	-3044
ecatalog	-3045
▁antlr	-3046
method	-3047
tink	-3048
pres	-3049
NamesImpl	-3050
Orig	-3051
Liter	-3052
Li	-3053
Fr	-3054
jackcess	-3055
healthmarket	-3056
partition	-3057
servic	-3058
Runn	-3059
74	-3060
Completion	-3061
Num	-3062
Navig	-3063
hssf	-3064
dar	-3065
pattern	-3066
ended	-3067
▁N	-3068
72	-3069
score	-3070
Acti	-3071
logy	-3072
Plugin	-3073
inte	-3074
EX	-3075
▁names	-3076
asyncHandler	-3077
ular	-3078
Core	-3079
locks	-3080
Annotations	-3081
cloudfront	-3082
ves	-3083
opengis	-3084
feel	-3085
comprehend	-3086
Expr	-3087
EM	-3088
avro	-3089
unn	-3090
kn	-3091
uz	-3092
amelift	-3093
Scheduled	-3094
MethodName	-3095
oice	-3096
XPath	-3097
records	-3098
update	-3099
commit	-3100
▁IN	-3101
eries	-3102
tify	-3103
ATION	-3104
new	-3105
FI	-3106
LocationName	-3107
130715.	-3108
Blocking	-3109
Render	-3110
28.<	-3111
atial	-3112
Mojo	-3113
Ne	-3114
Extr	-3115
problem	-3116
gamelift	-3117
box	-3118
template	-3119
tries	-3120
▁\	-3121
gnl	-3122
ECT	-3123
MessageTask	-3124
Min	-3125
76	-3126
repository	-3127
Constants	-3128
Fill	-3129
uzu	-3130
FieldDescriptor	-3131
Encoding	-3132
post	-3133
Compilation	-3134
Credenti	-3135
85	-3136
Post	-3137
[1]	-3138
ich	-3139
Root	-3140
augment	-3141
LOAD	-3142
Export	-3143
JavaParser	-3144
stamp	-3145
Lim	-3146
pare	-3147
SimpleType	-3148
99	-3149
helper	-3150
31.<	-3151
gher	-3152
gherkin	-3153
rl	-3154
grass	-3155
reengrass	-3156
batis	-3157
compute	-3158
mybatis	-3159
codecommit	-3160
conf	-3161
description	-3162
▁getCurrentDepth	-3163
Gri	-3164
▁1]	-3165
88	-3166
eer	-3167
12,	-3168
generic	-3169
charset	-3170
▁10	-3171
Commit	-3172
Shard	-3173
34.<	-3174
$2:	-3175
Timeout	-3176
▁clear	-3177
Hook	-3178
Supported	-3179
instance	-3180
leaner	-3181
gress	-3182
AS	-3183
AbstractMutable	-3184
fore	-3185
Logging	-3186
▁last	-3187
redds	-3188
▁exec	-3189
ibility	-3190
Literal	-3191
Delegate	-3192
SentinelValues	-3193
TreeSet	-3194
output	-3195
guard	-3196
pf	-3197
interceptor	-3198
Multiset	-3199
Unsafe	-3200
▁em	-3201
Geo	-3202
Visibility	-3203
yntax	-3204
Keys	-3205
AX	-3206
▁se	-3207
scanner	-3208
GroupRequest	-3209
Chain	-3210
.")	-3211
lot	-3212
▁met	-3213
cum	-3214
Instances	-3215
ENT	-3216
Functions	-3217
73	-3218
configure	-3219
ooby	-3220
IP	-3221
71	-3222
_2	-3223
▁map	-3224
servicecatalog	-3225
▁LO	-3226
Pass	-3227
ula	-3228
artifact	-3229
19)	-3230
▁namesMap	-3231
UN	-3232
Specification	-3233
part	-3234
OB	-3235
Lif	-3236
descriptors	-3237
Append	-3238
trosp	-3239
CH	-3240
TypeStoreUser	-3241
Pres	-3242
29.<	-3243
▁getKey	-3244
CO	-3245
Vpc	-3246
Lifecycle	-3247
Association	-3248
Grib	-3249
insp	-3250
classfile	-3251
▁request	-3252
orer	-3253
xpath	-3254
bucket	-3255
script	-3256
clouddirectory	-3257
▁table	-3258
Del	-3259
jsr	-3260
Usage	-3261
kinesisanalytics	-3262
LongMap	-3263
InfoImpl	-3264
Vir	-3265
AYLOAD	-3266
▁data	-3267
ecs	-3268
ImmutableMap	-3269
cept	-3270
Tri	-3271
plastic	-3272
▁PAYLOAD	-3273
queries	-3274
eso	-3275
Elements	-3276
Sql	-3277
Sort	-3278
ius	-3279
Marker	-3280
08	-3281
DS	-3282
Scan	-3283
faces	-3284
business	-3285
aggregations	-3286
airlift	-3287
Fields	-3288
alex	-3289
afor	-3290
alexafor	-3291
alexaforbusiness	-3292
processor	-3293
ULL	-3294
serializer	-3295
sorted	-3296
Balanc	-3297
PO	-3298
▁max	-3299
xn	-3300
Uni	-3301
ake	-3302
New	-3303
7:	-3304
teric	-3305
esoteric	-3306
esotericsoftware	-3307
ObjectHashMap	-3308
Trig	-3309
PM	-3310
datac	-3311
Trigger	-3312
14,	-3313
codecs	-3314
onestore	-3315
Limit	-3316
▁call	-3317
compat	-3318
DM	-3319
ices	-3320
link	-3321
Window	-3322
jooby	-3323
Select	-3324
Peer	-3325
ublic	-3326
▁augment	-3327
Stem	-3328
DOM	-3329
Authentic	-3330
Bits	-3331
remo	-3332
IntMap	-3333
Onestore	-3334
ucer	-3335
11,	-3336
htmlparser	-3337
typesystem	-3338
▁comp	-3339
atcher	-3340
pty	-3341
Refresh	-3342
XMLEvent	-3343
Chang	-3344
FilterProtos	-3345
protocols	-3346
hell	-3347
ProcedureProtos	-3348
bars	-3349
35.<	-3350
defs	-3351
xsdschema	-3352
device	-3353
taskdefs	-3354
Close	-3355
ick	-3356
Math	-3357
NoRemovedValue	-3358
UTF	-3359
▁ac	-3360
Buffered	-3361
indices	-3362
md	-3363
ote	-3364
LinkedList	-3365
▁T	-3366
▁print	-3367
discovery	-3368
apigatewayv	-3369
▁protostream	-3370
area	-3371
affe	-3372
farm	-3373
Duration	-3374
aker	-3375
affeine	-3376
avo	-3377
▁modCount	-3378
TimeUnit	-3379
Disabled	-3380
debug	-3381
LI	-3382
Launch	-3383
▁getNextToken	-3384
Soft	-3385
Random	-3386
_4	-3387
Termin	-3388
cocli	-3389
03	-3390
[])>("	-3391
gor	-3392
Stemmer	-3393
macie	-3394
dt	-3395
ImmutableList	-3396
External	-3397
gorith	-3398
textarea	-3399
FieldType	-3400
filesystems	-3401
fife	-3402
Bro	-3403
devicefarm	-3404
Raw	-3405
JECT	-3406
Persistence	-3407
handlebars	-3408
space	-3409
History	-3410
89	-3411
Email	-3412
picocli	-3413
opsworks	-3414
sResponse	-3415
dia	-3416
validator	-3417
MetaClass	-3418
dialect	-3419
BigInteger	-3420
knack	-3421
jknack	-3422
▁getLastParsed	-3423
Url	-3424
Virtual	-3425
ELD	-3426
JSType	-3427
LHash	-3428
dy	-3429
ky	-3430
tings	-3431
mappings	-3432
greengrass	-3433
)")	-3434
Dependency	-3435
wa	-3436
local	-3437
bridge	-3438
freemarker	-3439
ux	-3440
Timestamp	-3441
uif	-3442
binder	-3443
converter	-3444
▁STR	-3445
Qute	-3446
Results	-3447
11.	-3448
spatial	-3449
)[2]	-3450
vents	-3451
Serialization	-3452
13,	-3453
Split	-3454
export	-3455
ority	-3456
▁protocolFactory	-3457
OT	-3458
inc	-3459
▁as	-3460
alen	-3461
Seq	-3462
ark	-3463
PB	-3464
Return	-3465
EntrySet	-3466
artz	-3467
▁PAR	-3468
atmosphere	-3469
migrationservice	-3470
elasticmapreduce	-3471
trix	-3472
QHash	-3473
Imple	-3474
▁LOG	-3475
alendar	-3476
Score	-3477
$0	-3478
den	-3479
XMLStreamReader	-3480
Platform	-3481
ward	-3482
ship	-3483
Scaling	-3484
Attemp	-3485
Callable	-3486
Uri	-3487
autoconfigure	-3488
▁le	-3489
OBJECT	-3490
▁empty	-3491
stats	-3492
agment	-3493
Vol	-3494
▁reg	-3495
publisher	-3496
parallel	-3497
▁cur	-3498
Box	-3499
ARR	-3500
Ins	-3501
exceptions	-3502
multimap	-3503
ogc	-3504
kogn	-3505
kognition	-3506
ANCE	-3507
▁field	-3508
CodeStream	-3509
cloudw	-3510
istr	-3511
info	-3512
OnestoreEntity	-3513
DBCluster	-3514
CaseBuilder	-3515
CSS	-3516
ierarch	-3517
Information	-3518
SortedMaps	-3519
ancel	-3520
tre	-3521
DateTimeFormat	-3522
Acl	-3523
appender	-3524
ryo	-3525
Move	-3526
Encoder	-3527
FS	-3528
lazy	-3529
10]	-3530
MR	-3531
testng	-3532
files	-3533
junit	-3534
iom	-3535
Detector	-3536
86	-3537
atc	-3538
pol	-3539
simpleemailv	-3540
etry	-3541
JPQL	-3542
Mock	-3543
87	-3544
Arrays	-3545
Jvm	-3546
virt	-3547
pa	-3548
taskqueue	-3549
▁5	-3550
netvirt	-3551
caffeine	-3552
settings	-3553
alc	-3554
pb	-3555
storagegateway	-3556
StatusProtos	-3557
DoubleMap	-3558
Language	-3559
Ec	-3560
Plan	-3561
LocalCache	-3562
manes	-3563
benmanes	-3564
ARRAY	-3565
Resolved	-3566
fire	-3567
nodes	-3568
ProtocolBuffer	-3569
case	-3570
▁array	-3571
axiom	-3572
yped	-3573
Sink	-3574
datacleaner	-3575
sert	-3576
DMN	-3577
sub	-3578
netbeans	-3579
Subscription	-3580
stmt	-3581
ture	-3582
_3	-3583
Terms	-3584
elasticache	-3585
ha	-3586
ditions	-3587
Pipeline	-3588
dl	-3589
▁augmentation	-3590
32.<	-3591
84	-3592
Calendar	-3593
Attach	-3594
Coordinate	-3595
▁freemarker	-3596
testing	-3597
5[	-3598
21)	-3599
assertions	-3600
image	-3601
idden	-3602
Extended	-3603
DBC	-3604
eric	-3605
AB	-3606
Managed	-3607
PC	-3608
agn	-3609
Balancer	-3610
options	-3611
Delegating	-3612
rob	-3613
ObjectMap	-3614
tune	-3615
$4	-3616
Fragment	-3617
ToString	-3618
simpleworkflow	-3619
SearchServicePb	-3620
Analysis	-3621
gers	-3622
▁PARSER	-3623
Priority	-3624
Deli	-3625
sole	-3626
Topic	-3627
DataType	-3628
Accum	-3629
DRL	-3630
ddf	-3631
robom	-3632
Public	-3633
robomaker	-3634
Any	-3635
atures	-3636
agnos	-3637
uccess	-3638
$3	-3639
Changed	-3640
22)	-3641
WAL	-3642
OK	-3643
Space	-3644
mesh	-3645
▁arg	-3646
Elasticsearch	-3647
00(	-3648
ANTL	-3649
ANTLR	-3650
procedure	-3651
Imp	-3652
AbstractAmazon	-3653
Main	-3654
appmesh	-3655
lif	-3656
ave	-3657
Vpn	-3658
)[0]	-3659
adv	-3660
Named	-3661
Appendable	-3662
9.	-3663
NotSupported	-3664
cdk	-3665
TaskQueuePb	-3666
Setting	-3667
rekognition	-3668
tag	-3669
openscience	-3670
attribute	-3671
Term	-3672
balanc	-3673
Font	-3674
▁element	-3675
ValuesMap	-3676
AbstractMessage	-3677
uty	-3678
First	-3679
tal	-3680
cloudformation	-3681
JDBC	-3682
JsonError	-3683
OD	-3684
undle	-3685
AccessControl	-3686
Credentials	-3687
ordinal	-3688
HttpClient	-3689
ows	-3690
MapIterator	-3691
Sec	-3692
▁VALUE	-3693
Management	-3694
36.<	-3695
Memcache	-3696
▁ordinal	-3697
33.<	-3698
FloatMap	-3699
ingStrategy	-3700
ulate	-3701
HTML	-3702
directconnect	-3703
▁match	-3704
Failure	-3705
0[0]	-3706
▁source	-3707
execute	-3708
Fac	-3709
ose	-3710
Attempt	-3711
Requi	-3712
codedeploy	-3713
quartz	-3714
legate	-3715
yper	-3716
ily	-3717
Evaluator	-3718
ByteVector	-3719
▁FI	-3720
ManagerImpl	-3721
atalib	-3722
automatalib	-3723
gres	-3724
▁visit	-3725
▁id	-3726
8:	-3727
CharMap	-3728
HttpServlet	-3729
▁getMax	-3730
methods	-3731
Configur	-3732
ByteMap	-3733
Locator	-3734
▁lambda	-3735
ShortMap	-3736
Registr	-3737
▁""	-3738
Bytecode	-3739
▁11	-3740
crement	-3741
Archive	-3742
Fin	-3743
building	-3744
Param	-3745
Tracker	-3746
loadbalanc	-3747
wise	-3748
Relation	-3749
Heap	-3750
82	-3751
=")	-3752
static	-3753
Debug	-3754
Volume	-3755
▁node	-3756
anode	-3757
rol	-3758
1\	-3759
83	-3760
declaration	-3761
90	-3762
Only	-3763
pology	-3764
orph	-3765
)[$	-3766
▁keys	-3767
stalk	-3768
ayload	-3769
expressions	-3770
Analyzer	-3771
Resources	-3772
JobRequest	-3773
bm	-3774
lease	-3775
Transformer	-3776
stemmer	-3777
imension	-3778
cfg	-3779
ren	-3780
▁tr	-3781
SerializedLambda	-3782
Primitive	-3783
31)	-3784
wire	-3785
Stepper	-3786
lk	-3787
pload	-3788
ClassNode	-3789
criter	-3790
▁mergeFrom	-3791
kar	-3792
ipher	-3793
Deque	-3794
Rece	-3795
ocity	-3796
Prepar	-3797
dataset	-3798
200	-3799
Printer	-3800
Concat	-3801
Datanode	-3802
tives	-3803
Send	-3804
rewall	-3805
Precon	-3806
kit	-3807
BiFunction	-3808
ClassFile	-3809
structions	-3810
NULL	-3811
spec	-3812
dox	-3813
GE	-3814
BuilderParent	-3815
hwpf	-3816
Timer	-3817
codebuild	-3818
cost	-3819
Aware	-3820
81	-3821
Renderer	-3822
ome	-3823
components	-3824
Active	-3825
cg	-3826
mapping	-3827
CTS	-3828
RubyModule	-3829
▁error	-3830
Distribution	-3831
header	-3832
Found	-3833
Methods	-3834
pipeline	-3835
Alloc	-3836
▁STRING	-3837
atn	-3838
▁opennlp	-3839
Runnable	-3840
karaf	-3841
Bl	-3842
bundle	-3843
ClientExecution	-3844
extr	-3845
ision	-3846
illi	-3847
lay	-3848
ense	-3849
▁memo	-3850
▁getS	-3851
pp	-3852
Cancel	-3853
Raft	-3854
qual	-3855
HttpMethodName	-3856
TreeNode	-3857
▁x	-3858
Serializable	-3859
24)	-3860
Mark	-3861
ample	-3862
Processing	-3863
▁the	-3864
rsyntax	-3865
rsyntaxtextarea	-3866
jcr	-3867
rain	-3868
fr	-3869
nep	-3870
neptune	-3871
Streaming	-3872
23)	-3873
kryo	-3874
loadbalancing	-3875
fa	-3876
apht	-3877
Var	-3878
Groups	-3879
postgres	-3880
▁u	-3881
aud	-3882
Pol	-3883
SSF	-3884
doxia	-3885
▁DE	-3886
cot	-3887
jffi	-3888
grapht	-3889
env	-3890
postgresql	-3891
document	-3892
iotsite	-3893
iotsitewise	-3894
Extractor	-3895
Tokenizer	-3896
go	-3897
bval	-3898
▁RE	-3899
plorer	-3900
integers	-3901
Place	-3902
duty	-3903
guardduty	-3904
almworks	-3905
uler	-3906
annot	-3907
amily	-3908
sync	-3909
More	-3910
eckers	-3911
Stu	-3912
rules	-3913
kari	-3914
▁des	-3915
round	-3916
cglib	-3917
scijava	-3918
lens	-3919
Grid	-3920
Restore	-3921
HttpRequest	-3922
iosp	-3923
vol	-3924
defin	-3925
▁>>	-3926
ProblemReporter	-3927
ks	-3928
strument	-3929
96	-3930
izations	-3931
Deserializer	-3932
Qualified	-3933
ognl	-3934
easymock	-3935
ld	-3936
Register	-3937
router	-3938
commands	-3939
Ow	-3940
geo	-3941
Parameterized	-3942
▁delegate	-3943
jorm	-3944
hs	-3945
apt	-3946
sun	-3947
147	-3948
vate	-3949
AM	-3950
11]	-3951
sdb	-3952
javadoc	-3953
CP	-3954
bor	-3955
velocity	-3956
ether	-3957
▁memoized	-3958
verse	-3959
▁1,	-3960
convert	-3961
Camel	-3962
licit	-3963
interpr	-3964
tf	-3965
connection	-3966
backup	-3967
ackage	-3968
orum	-3969
tuna	-3970
ujorm	-3971
tili	-3972
RO	-3973
mapdb	-3974
Failed	-3975
Headers	-3976
Reservation	-3977
fortuna	-3978
gm	-3979
Rewrite	-3980
smali	-3981
Emb	-3982
▁argument	-3983
150	-3984
uff	-3985
ification	-3986
_2__	-3987
Cached	-3988
▁Clone	-3989
▁monitor	-3990
aether	-3991
SI	-3992
OPER	-3993
beanstalk	-3994
elasticbeanstalk	-3995
Typed	-3996
genius	-3997
Regex	-3998
Progress	-3999
Digest	-4000
15,	-4001
Parti	-4002
Payload	-4003
Bulk	-4004
JsonGenerator	-4005
Provision	-4006
Replace	-4007
Augmentation	-4008
Tool	-4009
IR	-4010
Structure	-4011
Alt	-4012
Preconditions	-4013
pri	-4014
operations	-4015
Embed	-4016
▁D	-4017
fu	-4018
acity	-4019
Ordered	-4020
ife	-4021
Images	-4022
$:	-4023
Chunk	-4024
ifest	-4025
clients	-4026
card	-4027
Mi	-4028
12]	-4029
Hierarch	-4030
Numeric	-4031
Adaptor	-4032
DataInput	-4033
ASTNode	-4034
sWith	-4035
Org	-4036
explorer	-4037
▁no	-4038
deser	-4039
Norm	-4040
Family	-4041
▁format	-4042
▁we	-4043
▁getUnmarshaller	-4044
interfaces	-4045
Workflow	-4046
Pan	-4047
▁B	-4048
Mail	-4049
97	-4050
▁method	-4051
instructions	-4052
istic	-4053
107	-4054
▁substring	-4055
Navigable	-4056
Aggregation	-4057
reactive	-4058
KeyMap	-4059
▁lookup	-4060
Connect	-4061
Initialized	-4062
27)	-4063
()	-4064
costexplorer	-4065
learning	-4066
Origin	-4067
naming	-4068
Hsql	-4069
valen	-4070
memory	-4071
▁al	-4072
MS	-4073
ImmutableSet	-4074
sonar	-4075
Dimension	-4076
Mut	-4077
Wh	-4078
quivalen	-4079
cotta	-4080
racotta	-4081
Exchange	-4082
95	-4083
98	-4084
Coding	-4085
eoo	-4086
Ids	-4087
WebSocket	-4088
Down	-4089
▁FIELD	-4090
TagsFor	-4091
sonarsource	-4092
fun	-4093
Sync	-4094
clude	-4095
Closure	-4096
▁debug	-4097
Phase	-4098
asein	-4099
▁sh	-4100
DataTransfer	-4101
orphan	-4102
Declar	-4103
Weak	-4104
spaces	-4105
oas	-4106
trib	-4107
machine	-4108
selector	-4109
XQuery	-4110
descr	-4111
edStatement	-4112
Ava	-4113
japa	-4114
Subnet	-4115
Avail	-4116
Catalog	-4117
orphaned	-4118
report	-4119
shell	-4120
vices	-4121
dasein	-4122
Organ	-4123
25)	-4124
cribe	-4125
STANCE	-4126
references	-4127
BuilderImpl	-4128
▁before	-4129
StateData	-4130
▁cz	-4131
reactor	-4132
Sem	-4133
ssist	-4134
reteoo	-4135
16,	-4136
Success	-4137
eg	-4138
dbc	-4139
Collect	-4140
Mis	-4141
Conversion	-4142
Binder	-4143
teo	-4144
ovsdb	-4145
)>(4	-4146
gorithm	-4147
CON	-4148
leet	-4149
Temp	-4150
rebind	-4151
openstack	-4152
lator	-4153
archiver	-4154
$1)>(	-4155
venky	-4156
terracotta	-4157
Health	-4158
▁do	-4159
entation	-4160
ResourceResult	-4161
vml	-4162
criteo	-4163
▁compare	-4164
SP	-4165
bud	-4166
inten	-4167
formula	-4168
SymbolTable	-4169
intenance	-4170
6[	-4171
jdk	-4172
step	-4173
Evaluation	-4174
93	-4175
pull	-4176
spath	-4177
Bus	-4178
▁entry	-4179
Fleet	-4180
criteria	-4181
sible	-4182
Manifest	-4183
dra	-4184
pected	-4185
Lcom	-4186
Enumer	-4187
routing	-4188
Watch	-4189
sus	-4190
soap	-4191
32)	-4192
26)	-4193
Updated	-4194
appflow	-4195
Categ	-4196
datat	-4197
SSL	-4198
Kie	-4199
JavaType	-4200
LoadBalancer	-4201
ecast	-4202
ending	-4203
writer	-4204
Meter	-4205
Authentication	-4206
CR	-4207
CompilationUnit	-4208
ListTagsFor	-4209
▁onChanged	-4210
timizer	-4211
▁25	-4212
signed	-4213
person	-4214
mmutable	-4215
ConcurrentMap	-4216
track	-4217
jarjarasm	-4218
Workspace	-4219
ULT	-4220
Js	-4221
Scm	-4222
53.	-4223
Rol	-4224
Runner	-4225
down	-4226
Predic	-4227
30,	-4228
Tran	-4229
▁execute	-4230
Brows	-4231
Mer	-4232
MethodVisitor	-4233
Diff	-4234
alization	-4235
kendra	-4236
Rich	-4237
Detection	-4238
wsdl	-4239
19.	-4240
Untag	-4241
Clause	-4242
PolicyRequest	-4243
▁7	-4244
▁apply	-4245
resolution	-4246
Sy	-4247
ATE	-4248
make	-4249
Bounds	-4250
Product	-4251
etype	-4252
Are	-4253
SL	-4254
chain	-4255
▁U	-4256
13]	-4257
Jar	-4258
92	-4259
ikari	-4260
Reflection	-4261
Safe	-4262
ped	-4263
rup	-4264
Dro	-4265
stub	-4266
rehose	-4267
IG	-4268
40.<	-4269
apackage	-4270
mediapackage	-4271
▁or	-4272
arus	-4273
tart	-4274
wafv	-4275
AnnotatedType	-4276
tartarus	-4277
MapEntrySet	-4278
MediaType	-4279
criber	-4280
Has	-4281
oid	-4282
nt	-4283
Maven	-4284
play	-4285
feature	-4286
fic	-4287
iverse	-4288
NotFound	-4289
interface	-4290
Fix	-4291
GrammarAccess	-4292
Browser	-4293
EntryCursor	-4294
esRequest	-4295
Dictionary	-4296
IntStream	-4297
oral	-4298
gnore	-4299
eted	-4300
37.<	-4301
Stub	-4302
94	-4303
NoSuchField	-4304
aging	-4305
urst	-4306
▁out	-4307
JB	-4308
itable	-4309
1604	-4310
alRequest	-4311
logic	-4312
▁par	-4313
9:	-4314
▁copy	-4315
Concaten	-4316
exps	-4317
rometer	-4318
volved	-4319
Forward	-4320
formatter	-4321
pojo	-4322
detector	-4323
imagebuilder	-4324
dsal	-4325
OL	-4326
iso	-4327
Mir	-4328
xssf	-4329
formatting	-4330
ish	-4331
evolved	-4332
evolvedbinary	-4333
mdsal	-4334
universe	-4335
paralleluniverse	-4336
flix	-4337
netflix	-4338
▁javassist	-4339
Hazelcast	-4340
Comparable	-4341
okio	-4342
Mirror	-4343
Migration	-4344
alker	-4345
ian	-4346
hslf	-4347
Classi	-4348
AtomicLong	-4349
17,	-4350
The	-4351
Retry	-4352
modelcompiler	-4353
ferences	-4354
NoSuchFieldError	-4355
)>(0,	-4356
Jdbc	-4357
..	-4358
micrometer	-4359
libratojava	-4360
Unable	-4361
tle	-4362
cz	-4363
ged	-4364
BeanDefinition	-4365
Adv	-4366
remote	-4367
MapCursor	-4368
Inference	-4369
book	-4370
Attachment	-4371
raft	-4372
wiremock	-4373
hurst	-4374
MessageType	-4375
tomake	-4376
tomakehurst	-4377
VER	-4378
TP	-4379
▁pro	-4380
Asset	-4381
▁left	-4382
Cook	-4383
nin	-4384
Selection	-4385
ancedConfig	-4386
ProtocolRequest	-4387
ented	-4388
▁logger	-4389
▁ensure	-4390
TypeDeclaration	-4391
spock	-4392
interpreted	-4393
38.<	-4394
ARN	-4395
EObject	-4396
▁list	-4397
▁co	-4398
ighbor	-4399
asure	-4400
91	-4401
Equivalen	-4402
_2.	-4403
Disp	-4404
▁getResource	-4405
ventory	-4406
Maintenance	-4407
Expressions	-4408
Syntax	-4409
cpr	-4410
unnel	-4411
uid	-4412
Ordering	-4413
VALUES	-4414
AbstractAWS	-4415
spect	-4416
21.	-4417
Blob	-4418
▁fi	-4419
39.<	-4420
Star	-4421
JavadocParser	-4422
36)	-4423
uggest	-4424
Revision	-4425
ground	-4426
Some	-4427
sched	-4428
Conf	-4429
Decor	-4430
ES	-4431
Producer	-4432
reader	-4433
codepipeline	-4434
cur	-4435
deo	-4436
apped	-4437
PBImpl	-4438
▁TYPE	-4439
ruct	-4440
old	-4441
ART	-4442
star	-4443
QuotaProtos	-4444
Chart	-4445
Full	-4446
XContentParser	-4447
Wi	-4448
ClassInfo	-4449
instrument	-4450
Indexed	-4451
Enable	-4452
SQLException	-4453
LongHashMap	-4454
language	-4455
14]	-4456
obj	-4457
160406.	-4458
Pull	-4459
AmazonEC	-4460
LinkedOpenCustom	-4461
$5	-4462
.0	-4463
covered	-4464
Branch	-4465
Hyper	-4466
Lower	-4467
antage	-4468
ElementException	-4469
advantage	-4470
boon	-4471
advantageous	-4472
lexmodel	-4473
lexmodelbuilding	-4474
Left	-4475
Descr	-4476
▁buffer	-4477
tract	-4478
entr	-4479
Discovery	-4480
Owner	-4481
1308	-4482
Sim	-4483
IC	-4484
appstream	-4485
Utf	-4486
incip	-4487
Leaf	-4488
InfoProto	-4489
Creator	-4490
Area	-4491
Plot	-4492
webdav	-4493
▁/	-4494
bound	-4495
Apply	-4496
Upload	-4497
IntHashMap	-4498
logger	-4499
fraud	-4500
Appen	-4501
frauddetector	-4502
Xtext	-4503
AtomicReference	-4504
Super	-4505
gal	-4506
Nio	-4507
NodeList	-4508
uli	-4509
▁pre	-4510
found	-4511
ServiceImpl	-4512
urk	-4513
swf	-4514
DT	-4515
bootstrap	-4516
ymbols	-4517
▁LA	-4518
▁<<	-4519
rem	-4520
▁32	-4521
ative	-4522
Labels	-4523
Finder	-4524
XMLStreamWriter	-4525
Flush	-4526
▁invoke	-4527
Assignment	-4528
spockframework	-4529
Af	-4530
▁right	-4531
Partial	-4532
ros	-4533
Accumulator	-4534
1[$	-4535
CallSiteArray	-4536
jvm	-4537
BlockScope	-4538
Stage	-4539
iod	-4540
41.<	-4541
yote	-4542
jc	-4543
TypeImpl	-4544
filesystem	-4545
heap	-4546
▁accept	-4547
Aud	-4548
Files	-4549
policy	-4550
ShapeMetadata	-4551
jarjarpicocli	-4552
associ	-4553
Concatenation	-4554
DataObject	-4555
Erasure	-4556
▁resol	-4557
ixin	-4558
($	-4559
▁Request	-4560
openflowjava	-4561
ial	-4562
adap	-4563
abric	-4564
prise	-4565
▁parameter	-4566
Criter	-4567
.$	-4568
Sol	-4569
channels	-4570
andling	-4571
thre	-4572
uke	-4573
Associate	-4574
VOK	-4575
AbstractSession	-4576
sequence	-4577
JobResult	-4578
patterns	-4579
Transit	-4580
Reas	-4581
AF	-4582
RegionServer	-4583
Equals	-4584
Appender	-4585
bed	-4586
Facet	-4587
astruct	-4588
persistent	-4589
Eff	-4590
130819.	-4591
CodeGenerator	-4592
28)	-4593
grade	-4594
adon	-4595
armadon	-4596
personalize	-4597
ErasureCoding	-4598
nxm	-4599
MarshallTime	-4600
yaml	-4601
finalRequest	-4602
DocValues	-4603
Algorithm	-4604
odd	-4605
Diagnos	-4606
stepfunctions	-4607
choice	-4608
river	-4609
aching	-4610
comm	-4611
impledb	-4612
jsimpledb	-4613
vileg	-4614
▁lookupswitch	-4615
kohs	-4616
kohsuke	-4617
imary	-4618
assist	-4619
Matrix	-4620
docs	-4621
vtep	-4622
enterprise	-4623
TER	-4624
vity	-4625
UID	-4626
global	-4627
LocalVariable	-4628
\"	-4629
Edge	-4630
Capacity	-4631
from	-4632
arto	-4633
brain	-4634
FileServicePb	-4635
▁free	-4636
Enumeration	-4637
Cookie	-4638
MultiMap	-4639
agarto	-4640
idata	-4641
Secon	-4642
1309	-4643
brains	-4644
jetbrains	-4645
Finding	-4646
Flag	-4647
sive	-4648
juzu	-4649
garmadon	-4650
INVOK	-4651
ThreadLocal	-4652
Implement	-4653
memcache	-4654
PrintWriter	-4655
15]	-4656
introsp	-4657
BytesRef	-4658
detect	-4659
Section	-4660
scop	-4661
NotNull	-4662
▁lock	-4663
DBInstance	-4664
Void	-4665
axy	-4666
kip	-4667
Reserved	-4668
Scheduler	-4669
workspaces	-4670
_$	-4671
galaxy	-4672
▁first	-4673
databinding	-4674
tron	-4675
workdocs	-4676
tuple	-4677
Light	-4678
Insn	-4679
Cor	-4680
Registration	-4681
ErrorCode	-4682
Modifier	-4683
SoftReference	-4684
javi	-4685
javimmutable	-4686
Entries	-4687
reference	-4688
8[	-4689
izard	-4690
BiMap	-4691
Emit	-4692
ToObject	-4693
Replica	-4694
Plus	-4695
acy	-4696
eval	-4697
▁newUpdatable	-4698
JBPM	-4699
JBPMMessages	-4700
fabric	-4701
Children	-4702
pre	-4703
Private	-4704
Buf	-4705
Classpath	-4706
Rect	-4707
jgrapht	-4708
43.<	-4709
transfer	-4710
▁min	-4711
42.<	-4712
Equivalence	-4713
SimpleValue	-4714
learn	-4715
Period	-4716
Organization	-4717
Membership	-4718
ai	-4719
MethodHandle	-4720
real	-4721
▁16	-4722
iotanalytics	-4723
Use	-4724
ClassDescriptor	-4725
▁count	-4726
semb	-4727
Signing	-4728
Ast	-4729
interceptors	-4730
juli	-4731
TypeConverter	-4732
Der	-4733
$000	-4734
result	-4735
hql	-4736
jaxws	-4737
media	-4738
Exporter	-4739
18]	-4740
organ	-4741
HamletSpec	-4742
firehose	-4743
2$	-4744
kinesisfirehose	-4745
sBuilder	-4746
url	-4747
codeassist	-4748
ProcessInstance	-4749
29)	-4750
Css	-4751
EMP	-4752
lify	-4753
incipal	-4754
oting	-4755
coyote	-4756
▁juzu	-4757
Injection	-4758
ym	-4759
▁handle	-4760
Fixed	-4761
RuleContext	-4762
fly	-4763
off	-4764
Editor	-4765
InternalXbase	-4766
UM	-4767
API	-4768
▁intValue	-4769
37)	-4770
executor	-4771
iters	-4772
Db	-4773
Members	-4774
IntRBTreeMap	-4775
ByteRBTreeMap	-4776
CharRBTreeMap	-4777
LongRBTreeMap	-4778
FloatRBTreeMap	-4779
ShortRBTreeMap	-4780
DoubleRBTreeMap	-4781
OPERATION	-4782
fx	-4783
Scheme	-4784
hsm	-4785
distribution	-4786
multi	-4787
Nxm	-4788
Stmt	-4789
Allocation	-4790
ObjectRBTreeMap	-4791
ModCount	-4792
Walker	-4793
ections	-4794
xtend	-4795
BooleanRBTreeMap	-4796
create	-4797
StackTrace	-4798
Aggregate	-4799
SetRequest	-4800
▁reactor	-4801
▁dec	-4802
HashingStrategy	-4803
Transformation	-4804
LinkedHashMap	-4805
SomeRemoved	-4806
LazyString	-4807
oper	-4808
FlowInfo	-4809
filer	-4810
Es	-4811
Esc	-4812
...	-4813
organizations	-4814
39)	-4815
logback	-4816
$()>()	-4817
Among	-4818
Bug	-4819
cdf	-4820
bench	-4821
pdf	-4822
SecurityGroup	-4823
CompilerOptions	-4824
Placement	-4825
TransitGateway	-4826
oni	-4827
ATN	-4828
0[1]	-4829
38)	-4830
inspector	-4831
head	-4832
102	-4833
MapFactoryImpl	-4834
ison	-4835
IS	-4836
Dum	-4837
UP	-4838
xmldb	-4839
Recovery	-4840
7[	-4841
kms	-4842
22,	-4843
1404	-4844
Oneof	-4845
the	-4846
ln	-4847
30)	-4848
xer	-4849
16]	-4850
Implementor	-4851
joni	-4852
Pos	-4853
lac	-4854
ContentHandler	-4855
AutoScaling	-4856
assed	-4857
▁info	-4858
Checker	-4859
Ptr	-4860
Off	-4861
bsd	-4862
termin	-4863
CF	-4864
TH	-4865
Wa	-4866
46.<	-4867
Ren	-4868
davfx	-4869
StateObject	-4870
Disk	-4871
rng	-4872
bin	-4873
rngom	-4874
▁va	-4875
DoubleHashMap	-4876
Arguments	-4877
INVOKER	-4878
Hashtable	-4879
KeyValue	-4880
▁charAt	-4881
unidata	-4882
nowled	-4883
HashCode	-4884
ULE	-4885
▁compute	-4886
cc	-4887
ton	-4888
scan	-4889
Decision	-4890
AWSI	-4891
adow	-4892
ninio	-4893
Sm	-4894
oup	-4895
sRequestProto	-4896
0001\	-4897
Ignore	-4898
jsoup	-4899
lacier	-4900
MapMaker	-4901
Push	-4902
ili	-4903
remoting	-4904
Keeper	-4905
Criteria	-4906
ses	-4907
CamelContext	-4908
FloatHashMap	-4909
ByteHashMap	-4910
CharHashMap	-4911
ShortHashMap	-4912
Routing	-4913
its	-4914
rift	-4915
▁update	-4916
design	-4917
▁file	-4918
Terminal	-4919
Nsh	-4920
uld	-4921
ioc	-4922
FAULT	-4923
def	-4924
Events	-4925
▁token	-4926
appsync	-4927
▁passed	-4928
dbunit	-4929
ural	-4930
xray	-4931
Subscriber	-4932
surefire	-4933
actories	-4934
45.<	-4935
//	-4936
Current	-4937
▁position	-4938
Conditional	-4939
googlecode	-4940
late	-4941
Wid	-4942
1310	-4943
uristic	-4944
typesafe	-4945
Enh	-4946
0[5	-4947
19]	-4948
shadow	-4949
Dispatcher	-4950
neighbor	-4951
Flags	-4952
Jax	-4953
EventListener	-4954
connector	-4955
Machine	-4956
formance	-4957
Flux	-4958
ResourceManager	-4959
optional	-4960
▁getStatus	-4961
Draw	-4962
SetFactory	-4963
▁replace	-4964
Autom	-4965
webflow	-4966
▁getString	-4967
Delta	-4968
(...	-4969
▁make	-4970
▁getId	-4971
$6	-4972
170	-4973
$$	-4974
OutOf	-4975
SerializerHook	-4976
licies	-4977
workbench	-4978
NodeInstance	-4979
six	-4980
body	-4981
associate	-4982
Wild	-4983
17]	-4984
hbm	-4985
anonfun	-4986
loaders	-4987
▁getTags	-4988
▁cache	-4989
▁gener	-4990
$1>	-4991
gur	-4992
hk	-4993
jodd	-4994
Recovered	-4995
6.	-4996
_3__	-4997
codegur	-4998
ater	-4999
(...)")	-5000
Privileg	-5001
Execute	-5002
ThreadPool	-5003
Help	-5004
1[0]	-5005
120	-5006
Indi	-5007
ABLE	-5008
lenskit	-5009
ished	-5010
2>	-5011
after	-5012
Packet	-5013
aQute	-5014
datastruct	-5015
Deliver	-5016
stab	-5017
etty	-5018
Pick	-5019
Emitter	-5020
IntAVLTreeMap	-5021
ByteAVLTreeMap	-5022
CharAVLTreeMap	-5023
LongAVLTreeMap	-5024
FloatAVLTreeMap	-5025
ShortAVLTreeMap	-5026
DoubleAVLTreeMap	-5027
Each	-5028
NodeType	-5029
kv	-5030
Contact	-5031
44.<	-5032
ObjectAVLTreeMap	-5033
▁addAll	-5034
FileObject	-5035
acle	-5036
Comparison	-5037
18,	-5038
▁getProperty	-5039
Filters	-5040
▁1:	-5041
weight	-5042
▁register	-5043
ftp	-5044
Keyword	-5045
fmt	-5046
structure	-5047
Extensions	-5048
ResponseHandler	-5049
illis	-5050
▁newUpdatableMap	-5051
▁JSON	-5052
avosc	-5053
avoscloud	-5054
avos	-5055
drop	-5056
Reason	-5057
dataformat	-5058
iterator	-5059
Hemf	-5060
Traver	-5061
Forwarding	-5062
itions	-5063
Evi	-5064
nowledge	-5065
Exist	-5066
region	-5067
Creation	-5068
symbols	-5069
Activity	-5070
▁jodd	-5071
docdb	-5072
Ind	-5073
Distribu	-5074
103	-5075
uit	-5076
Closeable	-5077
ReportProto	-5078
Transition	-5079
EMPTY	-5080
Inject	-5081
33)	-5082
datab	-5083
Span	-5084
archivers	-5085
Aggregator	-5086
Policies	-5087
▁println	-5088
condition	-5089
Inet	-5090
databrew	-5091
gluedatabrew	-5092
workmail	-5093
JRFill	-5094
pinpointemail	-5095
ParseException	-5096
rosstab	-5097
Sets	-5098
Hw	-5099
FE	-5100
atche	-5101
atchevents	-5102
cloudwatchevents	-5103
▁load	-5104
Disassociate	-5105
Primary	-5106
pop	-5107
initi	-5108
hemf	-5109
RPC	-5110
Err	-5111
lows	-5112
INT	-5113
arta	-5114
101	-5115
gets	-5116
DF	-5117
ReadWrite	-5118
eventbridge	-5119
Replicated	-5120
Decorator	-5121
MutableEntry	-5122
less	-5123
avings	-5124
Real	-5125
herkin	-5126
Prop	-5127
Txn	-5128
Atmosphere	-5129
▁init	-5130
hwvtep	-5131
jak	-5132
geometry	-5133
imitives	-5134
MethodWriter	-5135
jakarta	-5136
Compiled	-5137
SQLParser	-5138
BiConsumer	-5139
celer	-5140
ilt	-5141
106	-5142
LOW	-5143
Game	-5144
tribes	-5145
havi	-5146
apis	-5147
ffic	-5148
Initializer	-5149
dynamic	-5150
DK	-5151
BooleanMap	-5152
Align	-5153
Mac	-5154
lice	-5155
DataOutput	-5156
diff	-5157
)[3]	-5158
Gherkin	-5159
symbolsolver	-5160
_4_2.	-5161
IME	-5162
CharArray	-5163
WALProtos	-5164
AtomicInteger	-5165
InternalMap	-5166
Ssl	-5167
HTTP	-5168
press	-5169
Authorization	-5170
105	-5171
UUID	-5172
Word	-5173
Category	-5174
DocumentImpl	-5175
Wildcard	-5176
▁getAws	-5177
Unsigned	-5178
Loop	-5179
SingletonMap	-5180
Insert	-5181
XSSF	-5182
Kafka	-5183
rono	-5184
Chrono	-5185
2[$	-5186
sitive	-5187
▁>>>	-5188
JsonObject	-5189
enu	-5190
internals	-5191
TableName	-5192
machinelearning	-5193
forecast	-5194
topology	-5195
loadbalancingv	-5196
▁internal	-5197
DataImpl	-5198
jdom	-5199
Clear	-5200
▁unknownField	-5201
Tcp	-5202
matching	-5203
pot	-5204
over	-5205
14748	-5206
▁pos	-5207
48.<	-5208
irc	-5209
MutableMap	-5210
urnal	-5211
thredds	-5212
ialect	-5213
OS	-5214
Sequ	-5215
20,	-5216
ListUnmarshaller	-5217
Panel	-5218
104	-5219
▁unknownFields	-5220
109	-5221
ank	-5222
1603	-5223
acing	-5224
34)	-5225
Unified	-5226
1474836	-5227
Behavi	-5228
Indices	-5229
ForType	-5230
OF	-5231
▁context	-5232
128	-5233
Completable	-5234
TypeVariable	-5235
2(	-5236
▁time	-5237
difi	-5238
extensions	-5239
Console	-5240
validate	-5241
▁must	-5242
amplify	-5243
perim	-5244
20]	-5245
Diagnostic	-5246
qos	-5247
Uninterpreted	-5248
Union	-5249
EventType	-5250
Layer	-5251
Knowledge	-5252
://	-5253
▁aQute	-5254
IM	-5255
▁property	-5256
constr	-5257
Fault	-5258
celerator	-5259
▁EMPTY	-5260
enh	-5261
LazyStringList	-5262
bindery	-5263
quorum	-5264
Features	-5265
Introsp	-5266
waiters	-5267
Pending	-5268
zax	-5269
zaxxer	-5270
StringUtils	-5271
servermigration	-5272
ooKeeper	-5273
uk	-5274
meter	-5275
Errors	-5276
hikari	-5277
Dist	-5278
)>("/	-5279
smile	-5280
▁getTypeLoader	-5281
Checksum	-5282
Upgrade	-5283
ParseField	-5284
edical	-5285
ope	-5286
ObjectType	-5287
excel	-5288
Offer	-5289
Caching	-5290
utron	-5291
utdown	-5292
Password	-5293
sRequestProtocol	-5294
47.<	-5295
▁tableswitch	-5296
Secret	-5297
Receiver	-5298
Millis	-5299
Equal	-5300
49.<	-5301
Lib	-5302
Wire	-5303
▁entrySet	-5304
Persistent	-5305
IL	-5306
HsqlName	-5307
108	-5308
ustify	-5309
cell	-5310
STR	-5311
RandomAccess	-5312
max	-5313
atistic	-5314
Thing	-5315
mturk	-5316
Reduce	-5317
ConstantPool	-5318
pos	-5319
Geom	-5320
CaseImpl	-5321
ulation	-5322
logs	-5323
Kin	-5324
entrant	-5325
Allocate	-5326
Converters	-5327
lead	-5328
▁indexOf	-5329
Me	-5330
MBean	-5331
StreamProto	-5332
GherkinDocument	-5333
40)	-5334
builtins	-5335
VM	-5336
Reentrant	-5337
XContentBuilder	-5338
$100	-5339
Modified	-5340
mockito	-5341
Embedded	-5342
Tunnel	-5343
HashBag	-5344
ColorImpl	-5345
▁y	-5346
9[	-5347
popular	-5348
ByteList	-5349
justify	-5350
cloudwatch	-5351
eek	-5352
heuristic	-5353
LowerCase	-5354
offheap	-5355
$000(	-5356
Rules	-5357
cargo	-5358
ObjectSortedSet	-5359
pony	-5360
▁getParent	-5361
leadpony	-5362
ecked	-5363
Operand	-5364
FileDescriptor	-5365
Unicode	-5366
TreeAdaptor	-5367
fc	-5368
▁newBuilder	-5369
ride	-5370
Src	-5371
Find	-5372
Invoker	-5373
quire	-5374
easure	-5375
HashObj	-5376
Wrappers	-5377
TreeIterator	-5378
Cipher	-5379
dictionary	-5380
Bridge	-5381
Kinesis	-5382
BooleanHashMap	-5383
authentic	-5384
12.	-5385
glacier	-5386
ODULE	-5387
terminal	-5388
Increment	-5389
GroupResult	-5390
entifier	-5391
inventory	-5392
ryp	-5393
classfmt	-5394
XMLInputStream	-5395
CacheEntry	-5396
firewall	-5397
ful	-5398
bidden	-5399
After	-5400
raph	-5401
GER	-5402
networkfirewall	-5403
Principal	-5404
SLF	-5405
Ipv	-5406
▁thredds	-5407
introspect	-5408
board	-5409
ILogger	-5410
mpl	-5411
Like	-5412
UB	-5413
wizard	-5414
cloudsearch	-5415
Expir	-5416
▁START	-5417
liance	-5418
KE	-5419
presentation	-5420
CTP	-5421
MRProtos	-5422
MetaModel	-5423
NodeId	-5424
Permissions	-5425
$3:	-5426
CtClass	-5427
DL	-5428
Many	-5429
Signal	-5430
GeneratedYang	-5431
gencode	-5432
antlrgencode	-5433
Sys	-5434
vc	-5435
140421.	-5436
▁parent	-5437
SET	-5438
InputBuilder	-5439
dockerjava	-5440
clustering	-5441
mise	-5442
rap	-5443
Share	-5444
Recomm	-5445
Formatting	-5446
do	-5447
reak	-5448
▁13	-5449
Services	-5450
2[0]	-5451
Distributed	-5452
ListIterator	-5453
Ring	-5454
UnknownFields	-5455
Flat	-5456
codeartifact	-5457
atched	-5458
Dash	-5459
nect	-5460
clone	-5461
DateFormat	-5462
Wrapped	-5463
anges	-5464
ynch	-5465
35)	-5466
▁startsWith	-5467
Unique	-5468
Updater	-5469
$>	-5470
Pojo	-5471
▁INSTANCE	-5472
OutOfBounds	-5473
Delay	-5474
Nc	-5475
▁DEFAULT	-5476
AdvancedConfig	-5477
sume	-5478
neutron	-5479
GroovyParser	-5480
Agent	-5481
▁content	-5482
Declared	-5483
Gu	-5484
Dst	-5485
▁nextEvent	-5486
Bar	-5487
Writable	-5488
Perc	-5489
Interpr	-5490
Dynamo	-5491
optimizer	-5492
asl	-5493
scher	-5494
Sup	-5495
matcher	-5496
plates	-5497
Leg	-5498
susom	-5499
Prot	-5500
Init	-5501
AmazonS	-5502
Legacy	-5503
110	-5504
aton	-5505
Patch	-5506
ferred	-5507
jv	-5508
asynch	-5509
grid	-5510
ttp	-5511
asynchttp	-5512
asynchttpclient	-5513
Gap	-5514
Folder	-5515
tx	-5516
Unary	-5517
1509	-5518
DocInfo	-5519
Escher	-5520
Behavior	-5521
Desc	-5522
IndexOutOfBounds	-5523
ToInt	-5524
Optim	-5525
▁filter	-5526
01.	-5527
coun	-5528
embed	-5529
sent	-5530
Eclipse	-5531
EmptyMap	-5532
uri	-5533
Border	-5534
ogram	-5535
▁2:	-5536
Clo	-5537
classgen	-5538
▁getImpl	-5539
▁local	-5540
lz	-5541
checkers	-5542
▁push	-5543
ae	-5544
Sample	-5545
TE	-5546
bs	-5547
▁fl	-5548
Delegation	-5549
ning	-5550
▁getDescription	-5551
Cycle	-5552
CS	-5553
layout	-5554
jib	-5555
IPath	-5556
gin	-5557
Built	-5558
poifs	-5559
JsonNode	-5560
roll	-5561
SH	-5562
return	-5563
Hierarchy	-5564
history	-5565
cap	-5566
jvnet	-5567
upport	-5568
▁getMaxResults	-5569
andid	-5570
Country	-5571
▁convert	-5572
19,	-5573
▁expected	-5574
51.<	-5575
ECSS	-5576
Fore	-5577
EnumValue	-5578
tifier	-5579
datatype	-5580
Bid	-5581
Dialect	-5582
src	-5583
QU	-5584
ones	-5585
StringManager	-5586
Hwmf	-5587
SynchronizedMap	-5588
Injector	-5589
Traffic	-5590
Disable	-5591
FactoryImpl	-5592
xddf	-5593
ooter	-5594
_5	-5595
▁result	-5596
▁MODULE	-5597
Statistic	-5598
$0$	-5599
▁resolve	-5600
Capability	-5601
IV	-5602
Compact	-5603
▁li	-5604
TokenMaker	-5605
Recognition	-5606
QueryBuilder	-5607
Translator	-5608
JJ	-5609
▁getCre	-5610
300	-5611
images	-5612
▁xapi	-5613
Edit	-5614
NonBlocking	-5615
istogram	-5616
mime	-5617
Complex	-5618
Mutation	-5619
Modules	-5620
Rate	-5621
▁tag	-5622
)>(12	-5623
ough	-5624
Drools	-5625
IntLinked	-5626
LongLinked	-5627
DoubleLinked	-5628
TR	-5629
FieldMapper	-5630
ByteLinked	-5631
FloatLinked	-5632
ShortLinked	-5633
Preferences	-5634
ecr	-5635
116	-5636
modes	-5637
protocolrecords	-5638
Multipart	-5639
Original	-5640
dropwizard	-5641
utili	-5642
ticast	-5643
elements	-5644
angle	-5645
117	-5646
YarnServer	-5647
PR	-5648
cer	-5649
TaskAttempt	-5650
aver	-5651
ImmutableDouble	-5652
Login	-5653
ImmutableInt	-5654
High	-5655
GribCollection	-5656
oss	-5657
Redshift	-5658
Const	-5659
OrBuilder	-5660
pressed	-5661
VersionRequest	-5662
gui	-5663
▁toLowerCase	-5664
Ant	-5665
Preset	-5666
CTT	-5667
$8	-5668
ReadOnly	-5669
▁-2	-5670
QHashGO	-5671
113	-5672
Availability	-5673
▁service	-5674
constrainer	-5675
automata	-5676
▁cf	-5677
RegionRequest	-5678
Ms	-5679
RBTreeSet	-5680
MutableList	-5681
Cast	-5682
console	-5683
Black	-5684
TestProtos	-5685
General	-5686
iote	-5687
ordered	-5688
rmi	-5689
▁getAttribute	-5690
iotevents	-5691
collectionImpl	-5692
SimpleName	-5693
$7	-5694
119	-5695
ObjectLinked	-5696
managed	-5697
Solr	-5698
ImmutableLong	-5699
persister	-5700
ci	-5701
Worker	-5702
ApplyActions	-5703
flat	-5704
CharLinked	-5705
Obser	-5706
plus	-5707
0[4	-5708
Circ	-5709
▁collect	-5710
ReferenceLinked	-5711
115	-5712
Mask	-5713
ASTFactory	-5714
Calc	-5715
WriteActions	-5716
Overr	-5717
Requirement	-5718
ena	-5719
WithAnnotations	-5720
AbstractMap	-5721
ParseTree	-5722
run	-5723
SM	-5724
REG	-5725
pe	-5726
BlockNode	-5727
26,	-5728
▁path	-5729
datasync	-5730
plan	-5731
ToLong	-5732
▁nextIndex	-5733
HashInt	-5734
HashChar	-5735
▁increment	-5736
FactoryProvider	-5737
▁initi	-5738
21]	-5739
HashByte	-5740
HashLong	-5741
HashShort	-5742
appconfig	-5743
video	-5744
mediaconnect	-5745
2_0	-5746
▁containsKey	-5747
▁Object	-5748
verity	-5749
Jsp	-5750
usable	-5751
Can	-5752
!",	-5753
imum	-5754
Cost	-5755
velope	-5756
50.<	-5757
HashFloat	-5758
HashDouble	-5759
States	-5760
units	-5761
hwmf	-5762
AWSG	-5763
icho	-5764
jericho	-5765
114	-5766
EXT	-5767
Integration	-5768
Router	-5769
datastructures	-5770
jobs	-5771
agraph	-5772
▁endEvent	-5773
Near	-5774
ToObjectFunction	-5775
Candid	-5776
irection	-5777
forbidden	-5778
Monitoring	-5779
FactoryBean	-5780
tup	-5781
uni	-5782
▁startEvent	-5783
cor	-5784
fied	-5785
Mapped	-5786
Fs	-5787
Publish	-5788
160	-5789
ParserCSS	-5790
thet	-5791
stax	-5792
primitives	-5793
But	-5794
statement	-5795
This	-5796
snapshot	-5797
Missing	-5798
DataSet	-5799
Ansi	-5800
modifiable	-5801
aphi	-5802
thetaphi	-5803
forbiddenapis	-5804
AmazonCloud	-5805
kew	-5806
111	-5807
spdy	-5808
ict	-5809
Geometry	-5810
Release	-5811
Menu	-5812
043	-5813
JVM	-5814
Matching	-5815
▁W	-5816
Lat	-5817
Combin	-5818
fge	-5819
TemplateRequest	-5820
DynamicScope	-5821
▁checkNotNull	-5822
Tester	-5823
Sparse	-5824
ilities	-5825
shard	-5826
EventProtos	-5827
▁version	-5828
column	-5829
Offering	-5830
Complete	-5831
Voice	-5832
PolicyResult	-5833
PriorityQueue	-5834
remove	-5835
foundation	-5836
digest	-5837
Envelope	-5838
▁arraycopy	-5839
Deserialization	-5840
ResolvedType	-5841
station	-5842
Aes	-5843
suggest	-5844
high	-5845
ClusterState	-5846
Got	-5847
sights	-5848
▁parseFrom	-5849
wo	-5850
ther	-5851
things	-5852
sembly	-5853
CodeInfo	-5854
aded	-5855
▁even	-5856
BooleanLinked	-5857
resolve	-5858
abilities	-5859
Verifier	-5860
WithCustom	-5861
transcoder	-5862
Dex	-5863
iotthings	-5864
iotthingsgraph	-5865
jface	-5866
Severity	-5867
Learning	-5868
MutableInt	-5869
qs	-5870
Temporal	-5871
ClientDatanode	-5872
ObjectMapper	-5873
SnapshotRequest	-5874
150901.	-5875
JavaMethod	-5876
Visit	-5877
kinesisvideo	-5878
130	-5879
MQ	-5880
ValueIterator	-5881
TermsEnum	-5882
CODE	-5883
syn	-5884
Bootstrap	-5885
Interpreter	-5886
337	-5887
Poly	-5888
fn	-5889
NavigableMap	-5890
SAX	-5891
fsx	-5892
NodeMemory	-5893
Logs	-5894
encies	-5895
consumer	-5896
Try	-5897
Allow	-5898
entry	-5899
▁though	-5900
transcribe	-5901
wind	-5902
Detect	-5903
3[$	-5904
coded	-5905
groovyjarjarasm	-5906
▁mess	-5907
▁Cloneable	-5908
Pickle	-5909
AugMatch	-5910
vable	-5911
checks	-5912
2_0.	-5913
quare	-5914
Operations	-5915
endable	-5916
eded	-5917
Items	-5918
IdProto	-5919
DefaultValue	-5920
NonNull	-5921
MutableLong	-5922
Fact	-5923
RS	-5924
Design	-5925
FunctionWrappers	-5926
ReplicationPeer	-5927
bl	-5928
aggregation	-5929
orld	-5930
standard	-5931
118	-5932
nu	-5933
gram	-5934
Bo	-5935
hard	-5936
TokenType	-5937
datamodeling	-5938
52.<	-5939
oom	-5940
NativeType	-5941
ContextImpl	-5942
Ognl	-5943
140	-5944
Running	-5945
constra	-5946
Publisher	-5947
Trust	-5948
ceeded	-5949
_4__	-5950
PublicKey	-5951
sec	-5952
190	-5953
Paragraph	-5954
Logical	-5955
)>(9	-5956
▁getSource	-5957
matrix	-5958
Right	-5959
Suite	-5960
license	-5961
ImagesServicePb	-5962
ACL	-5963
newtypes	-5964
PMML	-5965
Compliance	-5966
lagarto	-5967
▁group	-5968
agno	-5969
RubyClass	-5970
Phone	-5971
cret	-5972
exchange	-5973
itm	-5974
ube	-5975
Absent	-5976
groundstation	-5977
Button	-5978
logservice	-5979
agnose	-5980
▁pop	-5981
RpcUpdate	-5982
prec	-5983
Note	-5984
cfjapa	-5985
initialized	-5986
sso	-5987
definition	-5988
MethodHandles	-5989
NS	-5990
jiapi	-5991
jobhistory	-5992
LogServicePb	-5993
IsInitialized	-5994
sb	-5995
112	-5996
alance	-5997
operand	-5998
thrift	-5999
TypeInfo	-6000
Inline	-6001
ApiGateway	-6002
LaunchTemplate	-6003
▁getUser	-6004
Netty	-6005
boxes	-6006
streams	-6007
Mappings	-6008
AG	-6009
Firewall	-6010
thread	-6011
eks	-6012
Unknown	-6013
▁target	-6014
FEEL	-6015
[2]	-6016
ipv	-6017
PropertyValue	-6018
Opcode	-6019
fluid	-6020
▁stream	-6021
cloudhsm	-6022
FIG	-6023
Activation	-6024
CTText	-6025
Nest	-6026
Realm	-6027
posix	-6028
▁dis	-6029
ived	-6030
Hard	-6031
Xpp	-6032
backend	-6033
translate	-6034
QualifiedName	-6035
profile	-6036
ImmutableFloat	-6037
ImmutableShort	-6038
Filtered	-6039
agon	-6040
merge	-6041
Resolve	-6042
Driver	-6043
presentationml	-6044
ComparatorProtos	-6045
▁text	-6046
Functional	-6047
FieldBinding	-6048
Jaxb	-6049
Compute	-6050
RubyString	-6051
ross	-6052
Dial	-6053
cloudsearchv	-6054
buddy	-6055
▁getCurrentToken	-6056
AVLTreeSet	-6057
NodeEngine	-6058
2\	-6059
parator	-6060
Observer	-6061
dataexchange	-6062
ImmutableChar	-6063
▁cannot	-6064
MutableDouble	-6065
backed	-6066
offheapstore	-6067
Reusable	-6068
Libr	-6069
ention	-6070
Va	-6071
$12	-6072
fms	-6073
letion	-6074
Regular	-6075
MutableFloat	-6076
Front	-6077
adcast	-6078
MutableShort	-6079
Vaadin	-6080
Lists	-6081
Customizer	-6082
LogEvent	-6083
▁options	-6084
SC	-6085
inst	-6086
▁checkers	-6087
)>("]	-6088
Icon	-6089
Audit	-6090
ero	-6091
listener	-6092
Spr	-6093
ATOR	-6094
0[6	-6095
LHashGO	-6096
Multicast	-6097
Invoke	-6098
Executable	-6099
riction	-6100
\\	-6101
Qualifier	-6102
▁21474836	-6103
KeyIterator	-6104
0[2]	-6105
▁config	-6106
Train	-6107
bility	-6108
Errno	-6109
scripting	-6110
22]	-6111
▁by	-6112
World	-6113
icast	-6114
render	-6115
Hyperlink	-6116
▁unmodifiable	-6117
AbstractCompiler	-6118
Naming	-6119
▁parameters	-6120
hadow	-6121
MutableChar	-6122
EventAttributes	-6123
Explicit	-6124
▁cfjapa	-6125
▁process	-6126
ca	-6127
std	-6128
DelegationToken	-6129
Backed	-6130
!")	-6131
)>(".	-6132
SocketAddress	-6133
GapList	-6134
kus	-6135
Cannot	-6136
prefix	-6137
dakus	-6138
dakusui	-6139
geoloc	-6140
eten	-6141
athena	-6142
speci	-6143
tical	-6144
UI	-6145
mc	-6146
ContentType	-6147
▁H	-6148
▁0:	-6149
▁post	-6150
▁back	-6151
ooled	-6152
ges	-6153
jcunit	-6154
windows	-6155
ReadWriteLock	-6156
Spot	-6157
threeten	-6158
kim	-6159
OLLOW	-6160
Ping	-6161
encer	-6162
Provisioned	-6163
▁CON	-6164
Utili	-6165
Privileged	-6166
anti	-6167
domains	-6168
Include	-6169
Variables	-6170
23]	-6171
vious	-6172
factories	-6173
Seman	-6174
ll	-6175
ALL	-6176
▁offset	-6177
iel	-6178
Formula	-6179
▁failed	-6180
operands	-6181
55.<	-6182
Series	-6183
Present	-6184
Trie	-6185
Navigator	-6186
Save	-6187
Notif	-6188
itter	-6189
NO	-6190
ImmutableByte	-6191
Agen	-6192
Agenda	-6193
Recommend	-6194
trees	-6195
ObjectId	-6196
▁getLogger	-6197
NcStreamProto	-6198
24]	-6199
▁255	-6200
oshi	-6201
24,	-6202
lict	-6203
JAX	-6204
▁freeValue	-6205
budgets	-6206
DynamoDB	-6207
21,	-6208
CTClient	-6209
Attrs	-6210
0[7	-6211
signer	-6212
RPCProtos	-6213
ByteBuf	-6214
blockchain	-6215
ould	-6216
Sasl	-6217
▁var	-6218
WAF	-6219
)>(6	-6220
▁trim	-6221
127	-6222
SOAP	-6223
Markup	-6224
sn	-6225
▁getFirst	-6226
JRBase	-6227
23,	-6228
TreeBuilder	-6229
Learn	-6230
Slot	-6231
jan	-6232
▁FOLLOW	-6233
jmes	-6234
jmespath	-6235
buildin	-6236
JSDocInfo	-6237
bnd	-6238
▁fin	-6239
author	-6240
Topology	-6241
alse	-6242
Roll	-6243
unded	-6244
iva	-6245
riable	-6246
MutableByte	-6247
ConfigRequest	-6248
▁37	-6249
Day	-6250
CTSdt	-6251
helpers	-6252
▁stack	-6253
53.<	-6254
Book	-6255
▁string	-6256
schedule	-6257
uent	-6258
analyzer	-6259
arshal	-6260
Sheet	-6261
IfAbsent	-6262
codestar	-6263
networkmanager	-6264
Recommendation	-6265
Restriction	-6266
Mime	-6267
54.<	-6268
Recur	-6269
▁mask	-6270
▁3:	-6271
0000	-6272
Provisioning	-6273
CTClientDataImpl	-6274
▁toArray	-6275
txn	-6276
RandomAccessFile	-6277
MRServiceProtos	-6278
integration	-6279
xapi	-6280
Jas	-6281
spire	-6282
Eval	-6283
Iv	-6284
$100(	-6285
123	-6286
learnlib	-6287
sbe	-6288
Relational	-6289
--	-6290
_8	-6291
Handling	-6292
StreamReader	-6293
▁stat	-6294
Semantic	-6295
cut	-6296
chang	-6297
Scriptable	-6298
Args	-6299
125	-6300
quir	-6301
features	-6302
▁message	-6303
▁child	-6304
Foreign	-6305
Percent	-6306
Stored	-6307
multipart	-6308
Contin	-6309
ableAlt	-6310
Compress	-6311
ToStringHelper	-6312
129	-6313
printer	-6314
datetime	-6315
Inner	-6316
elog	-6317
ToDouble	-6318
XMLWriter	-6319
NxmNx	-6320
Building	-6321
57.<	-6322
▁keySet	-6323
jsp	-6324
AbstractType	-6325
plans	-6326
ChangeSet	-6327
Classes	-6328
▁insert	-6329
rolling	-6330
Dialog	-6331
ObjMap	-6332
Directive	-6333
scopes	-6334
▁generate	-6335
ViableAlt	-6336
Instanti	-6337
Quad	-6338
depend	-6339
VersionResult	-6340
ERR	-6341
HashConfig	-6342
Tracking	-6343
war	-6344
▁mem	-6345
typeinfo	-6346
NoViableAlt	-6347
complete	-6348
122	-6349
▁resource	-6350
sqs	-6351
Compare	-6352
Viol	-6353
sink	-6354
Pur	-6355
ClassReader	-6356
121	-6357
Netcdf	-6358
Constraints	-6359
Retention	-6360
▁getContext	-6361
join	-6362
literator	-6363
▁link	-6364
PullParser	-6365
VirtualInterface	-6366
Override	-6367
servlets	-6368
atter	-6369
XmlPullParser	-6370
evi	-6371
DFA	-6372
AtomicBoolean	-6373
RegionInfo	-6374
33,	-6375
ooxml	-6376
Verification	-6377
Builtin	-6378
BytecodeAdapter	-6379
VI	-6380
:")	-6381
NetworkInterface	-6382
4[0]	-6383
MoreObjects	-6384
)>(5	-6385
touc	-6386
shield	-6387
vafer	-6388
3[0]	-6389
ollow	-6390
licated	-6391
toucan	-6392
toucanpdf	-6393
Queues	-6394
parsers	-6395
ah	-6396
Codegen	-6397
side	-6398
KeyValues	-6399
Readable	-6400
126	-6401
ACE	-6402
esResult	-6403
▁tree	-6404
locale	-6405
Candidate	-6406
ual	-6407
groups	-6408
filters	-6409
Shutdown	-6410
▁SDK	-6411
wid	-6412
Generation	-6413
58.<	-6414
Transactional	-6415
xstream	-6416
ActiveMQ	-6417
Conformance	-6418
Lic	-6419
keys	-6420
_6	-6421
Reverse	-6422
▁getText	-6423
FileOptions	-6424
▁warn	-6425
SessionImpl	-6426
LinkedHashSet	-6427
CONFIG	-6428
servicediscovery	-6429
▁expression	-6430
Classifier	-6431
CL	-6432
130911.	-6433
ProfileRequest	-6434
javasupport	-6435
ove	-6436
square	-6437
GroupsRequest	-6438
ics	-6439
geb	-6440
Projection	-6441
▁sm	-6442
burn	-6443
ments	-6444
burner	-6445
▁k	-6446
Shadow	-6447
resolved	-6448
SessionFactory	-6449
▁sentinelValues	-6450
ssoadmin	-6451
chrono	-6452
afterburner	-6453
0[3	-6454
titu	-6455
squareup	-6456
Timed	-6457
Authorizer	-6458
Required	-6459
Strings	-6460
blob	-6461
cipher	-6462
decl	-6463
officeDocument	-6464
RequestBuilder	-6465
ReplicatedMap	-6466
Specific	-6467
▁newInstance	-6468
Hibernate	-6469
ASS	-6470
56.<	-6471
InstanceRequest	-6472
Git	-6473
▁cast	-6474
0[8	-6475
Assist	-6476
Emf	-6477
131	-6478
True	-6479
124	-6480
▁getImplMethod	-6481
Two	-6482
itional	-6483
QueryCache	-6484
Ranges	-6485
Jmes	-6486
AWSCode	-6487
JmesPath	-6488
Connections	-6489
dst	-6490
Checked	-6491
InstancesRequest	-6492
DMNv	-6493
ready	-6494
ters	-6495
acer	-6496
Display	-6497
Recon	-6498
Effect	-6499
ResponseData	-6500
Rectangle	-6501
sFor	-6502
Ivy	-6503
UserRequest	-6504
Resteasy	-6505
deb	-6506
▁executor	-6507
xpp	-6508
Library	-6509
Second	-6510
ear	-6511
cup	-6512
▁root	-6513
Reci	-6514
Scroll	-6515
Resolution	-6516
▁cursor	-6517
lifecycle	-6518
▁groovyjarjarasm	-6519
TION	-6520
jdeb	-6521
sns	-6522
Instr	-6523
win	-6524
Tx	-6525
StatusRequest	-6526
ONG	-6527
lite	-6528
▁longValue	-6529
▁and	-6530
477	-6531
ServletContext	-6532
JobsRequest	-6533
VersionsRequest	-6534
Enhanced	-6535
)>(1,	-6536
XD	-6537
Strict	-6538
JJT	-6539
querycache	-6540
License	-6541
TreeNodeStream	-6542
▁0.0	-6543
▁dir	-6544
annotated	-6545
▁tags	-6546
Started	-6547
oT	-6548
▁2)	-6549
Pop	-6550
Jasper	-6551
Persister	-6552
▁mix	-6553
blocks	-6554
PAR	-6555
Before	-6556
▁require	-6557
42)	-6558
ASM	-6559
searchguard	-6560
▁user	-6561
Aspect	-6562
Definitions	-6563
▁num	-6564
fetch	-6565
Dashboard	-6566
▁object	-6567
insights	-6568
interfacemanager	-6569
Working	-6570
Oracle	-6571
wild	-6572
DSL	-6573
Traversal	-6574
EnumSet	-6575
Beans	-6576
Station	-6577
▁an	-6578
hdf	-6579
Wait	-6580
serializers	-6581
RuleRequest	-6582
NxAugMatch	-6583
18.	-6584
▁100	-6585
Bot	-6586
Once	-6587
Chars	-6588
Eviction	-6589
ki	-6590
Hierarchical	-6591
Ssh	-6592
kenai	-6593
tifications	-6594
Implicit	-6595
Implementation	-6596
)>("(	-6597
btree	-6598
medical	-6599
Ae	-6600
Weight	-6601
Semaph	-6602
Invi	-6603
Promise	-6604
PRE	-6605
▁getLog	-6606
spel	-6607
SortedBag	-6608
▁20	-6609
encoding	-6610
▁getVersion	-6611
Pooled	-6612
BeanProperty	-6613
Spring	-6614
Delivery	-6615
0[9	-6616
▁US	-6617
EventSource	-6618
Mix	-6619
IgnoreCase	-6620
134	-6621
Escape	-6622
ElementImpl	-6623
colo	-6624
137	-6625
wildfly	-6626
MethodCall	-6627
Predicates	-6628
coda	-6629
iccolo	-6630
PF	-6631
HealthCheck	-6632
Grouping	-6633
Semaphore	-6634
▁doc	-6635
00()>()	-6636
Total	-6637
TS	-6638
RedBlack	-6639
Configurator	-6640
DataFormat	-6641
ERROR	-6642
celand	-6643
)>(2)	-6644
flor	-6645
TestCase	-6646
Throt	-6647
Secure	-6648
iceland	-6649
QueryResult	-6650
Bgp	-6651
quires	-6652
Savings	-6653
sv	-6654
agunn	-6655
floragunn	-6656
Appro	-6657
1_	-6658
$200	-6659
hale	-6660
bas	-6661
Shell	-6662
Unresolved	-6663
codahale	-6664
MapReduce	-6665
▁elemental	-6666
HSSF	-6667
25]	-6668
NodeImpl	-6669
AGE	-6670
▁booleanValue	-6671
ObjDoubleMapGO	-6672
KEY	-6673
walk	-6674
Listing	-6675
XAttr	-6676
▁trace	-6677
oauth	-6678
GroupId	-6679
ObjFloatMapGO	-6680
alg	-6681
upiter	-6682
EList	-6683
ential	-6684
nova	-6685
acio	-6686
Strip	-6687
inspir	-6688
inspiracio	-6689
Chronology	-6690
inox	-6691
quinox	-6692
Protection	-6693
▁open	-6694
liciel	-6695
Inv	-6696
DI	-6697
cre	-6698
Exceeded	-6699
XmlSerializer	-6700
ru	-6701
▁addParameter	-6702
HBaseAdmin	-6703
Pretty	-6704
dev	-6705
DataInputStream	-6706
Reports	-6707
$4:	-6708
▁UN	-6709
mane	-6710
Quorum	-6711
▁report	-6712
dexbacked	-6713
ored	-6714
ismane	-6715
IntDoubleMapGO	-6716
ByteDoubleMapGO	-6717
CharDoubleMapGO	-6718
ShortDoubleMapGO	-6719
▁uk	-6720
Bitmap	-6721
ObjectFactory	-6722
gorithms	-6723
tsdr	-6724
talismane	-6725
joliciel	-6726
Inher	-6727
upro	-6728
ByteFloatMapGO	-6729
CharFloatMapGO	-6730
LongFloatMapGO	-6731
ShortFloatMapGO	-6732
Docker	-6733
rewrite	-6734
select	-6735
uprofiler	-6736
reactivestreams	-6737
codeguruprofiler	-6738
Bounded	-6739
Nan	-6740
AutoValue	-6741
MX	-6742
135	-6743
Guard	-6744
Localizer	-6745
Assert	-6746
Violation	-6747
ObjectParser	-6748
Reset	-6749
IGN	-6750
EndpointRequest	-6751
Cross	-6752
133	-6753
mojo	-6754
macro	-6755
144	-6756
rip	-6757
lide	-6758
Live	-6759
vigator	-6760
StateManager	-6761
Lightweight	-6762
▁ast	-6763
gon	-6764
▁getPath	-6765
Alter	-6766
Sn	-6767
_5__	-6768
Tail	-6769
BulkLoad	-6770
0[10	-6771
ObjectDataInput	-6772
Program	-6773
Side	-6774
Intern	-6775
▁im	-6776
uib	-6777
acc	-6778
jms	-6779
▁getService	-6780
Records	-6781
click	-6782
ustache	-6783
Tokens	-6784
Free	-6785
139	-6786
Assess	-6787
LOC	-6788
Compati	-6789
LineReader	-6790
DataOutputStream	-6791
prod	-6792
IntFloatMapGO	-6793
Hls	-6794
PhoneNumber	-6795
26]	-6796
JVMStatistics	-6797
jsonschema	-6798
tri	-6799
aop	-6800
Contract	-6801
Respon	-6802
ffix	-6803
Listen	-6804
▁jakarta	-6805
gum	-6806
41)	-6807
eed	-6808
Saver	-6809
0)]	-6810
Variant	-6811
xslf	-6812
ORT	-6813
Cryp	-6814
132	-6815
Comput	-6816
Training	-6817
▁29	-6818
conditional	-6819
▁getFile	-6820
25,	-6821
Watcher	-6822
builders	-6823
lexer	-6824
▁output	-6825
Drawing	-6826
1/	-6827
▁su	-6828
aign	-6829
ampaign	-6830
Spliterator	-6831
utions	-6832
0[3]	-6833
ErrorHandler	-6834
Collectors	-6835
ParserImpl	-6836
JPA	-6837
Interfaces	-6838
PropertyChange	-6839
10[	-6840
Mvel	-6841
Bud	-6842
qldb	-6843
Compile	-6844
Counters	-6845
ClassName	-6846
▁delete	-6847
jamon	-6848
iginal	-6849
59.<	-6850
temporal	-6851
DatabaseMetaData	-6852
138	-6853
IpAddress	-6854
Clock	-6855
_7	-6856
Fluent	-6857
RequestData	-6858
136	-6859
CacheStream	-6860
Quick	-6861
big	-6862
Conflict	-6863
bytebuddy	-6864
Tun	-6865
44)	-6866
Linear	-6867
▁J	-6868
60.<	-6869
ired	-6870
Compression	-6871
IntOpenCustom	-6872
ByteOpenCustom	-6873
LongOpenCustom	-6874
FloatOpenCustom	-6875
ShortOpenCustom	-6876
DoubleOpenCustom	-6877
measure	-6878
navigator	-6879
Plain	-6880
28]	-6881
ingConfiguration	-6882
verage	-6883
GrammarAST	-6884
▁getTarget	-6885
DataTree	-6886
ObjIntMapGO	-6887
ObjLongMapGO	-6888
RedBlackTree	-6889
Ten	-6890
datad	-6891
Broadcast	-6892
relation	-6893
InMemory	-6894
ObjByteMapGO	-6895
ObjCharMapGO	-6896
ObjShortMapGO	-6897
Setter	-6898
FO	-6899
earch	-6900
accelerator	-6901
dax	-6902
uses	-6903
DocumentPb	-6904
Entities	-6905
datadictionary	-6906
Nested	-6907
specific	-6908
▁line	-6909
register	-6910
wpf	-6911
▁26	-6912
launch	-6913
FM	-6914
Codes	-6915
Histogram	-6916
▁limit	-6917
ClientMetadata	-6918
$9	-6919
identifier	-6920
ANTLRParser	-6921
CC	-6922
XQueryContext	-6923
SchemaTypeSystem	-6924
Assessment	-6925
jamonapi	-6926
changelog	-6927
openssl	-6928
xwpf	-6929
OpenHashSet	-6930
Cogn	-6931
Cognito	-6932
trail	-6933
worklink	-6934
20.	-6935
▁move	-6936
entries	-6937
Commons	-6938
Vertical	-6939
TypeDescriptor	-6940
▁inter	-6941
ACT	-6942
Canon	-6943
cii	-6944
enhance	-6945
▁reference	-6946
Theme	-6947
diagnos	-6948
GroupName	-6949
ewah	-6950
43)	-6951
print	-6952
RDS	-6953
shape	-6954
experim	-6955
ValueNode	-6956
Acces	-6957
mart	-6958
▁wh	-6959
▁isDebug	-6960
▁exist	-6961
▁getParameter	-6962
ReferenceMap	-6963
Available	-6964
0[15	-6965
DynamicMethod	-6966
javaewah	-6967
27]	-6968
idr	-6969
BeanFactory	-6970
ooKeeperProtos	-6971
KeyView	-6972
sic	-6973
expected	-6974
ump	-6975
Band	-6976
Analytics	-6977
Framework	-6978
eppol	-6979
▁code	-6980
▁sun	-6981
Break	-6982
▁weixin	-6983
rfc	-6984
linux	-6985
visi	-6986
extra	-6987
▁number	-6988
quilli	-6989
quillian	-6990
AclProtos	-6991
TypeParameter	-6992
DetailAST	-6993
ByteIntMapGO	-6994
CharIntMapGO	-6995
IntLongMapGO	-6996
LongIntMapGO	-6997
ByteLongMapGO	-6998
CharLongMapGO	-6999
ShortIntMapGO	-7000
ShortLongMapGO	-7001
▁str	-7002
Journal	-7003
arquillian	-7004
size	-7005
CharOpenCustom	-7006
0[14	-7007
requestfactory	-7008
IsMutable	-7009
IntByteMapGO	-7010
IntCharMapGO	-7011
ByteCharMapGO	-7012
CharByteMapGO	-7013
IntShortMapGO	-7014
LongByteMapGO	-7015
LongCharMapGO	-7016
ByteShortMapGO	-7017
LongShortMapGO	-7018
ShortByteMapGO	-7019
▁prev	-7020
gmented	-7021
ReusableEntry	-7022
Rel	-7023
▁28	-7024
Pinpoint	-7025
Effective	-7026
unix	-7027
FieldInfo	-7028
Sources	-7029
Assignable	-7030
Sender	-7031
cloudtrail	-7032
preferences	-7033
Direction	-7034
SubmapIterator	-7035
Car	-7036
Authority	-7037
▁use	-7038
INSTANCE	-7039
47)	-7040
AWSIot	-7041
▁asList	-7042
SnapshotProtos	-7043
FunctionType	-7044
peppol	-7045
thou	-7046
ascii	-7047
strategy	-7048
vefa	-7049
JsonValue	-7050
ediff	-7051
gumtre	-7052
gumtreediff	-7053
ObjectOpenCustom	-7054
▁record	-7055
uibinder	-7056
2036	-7057
RangeSet	-7058
GroupImpl	-7059
▁sbinary	-7060
LongDoubleMapGO	-7061
Dup	-7062
stage	-7063
▁item	-7064
ParserContext	-7065
Do	-7066
▁header	-7067
0[16	-7068
Inters	-7069
▁getDescriptor	-7070
BlockProto	-7071
Windows	-7072
IntIntMapGO	-7073
viewer	-7074
Postings	-7075
Scop	-7076
imap	-7077
▁neg	-7078
ByteByteMapGO	-7079
CharCharMapGO	-7080
CharShortMapGO	-7081
ShortCharMapGO	-7082
ShortShortMapGO	-7083
Sysconf	-7084
DA	-7085
▁NAME	-7086
replicated	-7087
Xobj	-7088
ObjectSet	-7089
Finished	-7090
PlotOptions	-7091
ruleservice	-7092
▁column	-7093
InetAddress	-7094
losing	-7095
IdentityProvider	-7096
29]	-7097
ites	-7098
$14	-7099
▁emptyList	-7100
tra	-7101
requests	-7102
Packed	-7103
22337	-7104
Seconds	-7105
stringtemplate	-7106
tivesearch	-7107
▁setState	-7108
▁"",	-7109
Encoded	-7110
Campaign	-7111
UserPool	-7112
MvelParser	-7113
ChangeLog	-7114
chor	-7115
▁reset	-7116
Follow	-7117
223372036	-7118
Submit	-7119
jn	-7120
replicatedmap	-7121
▁4:	-7122
imp	-7123
61.<	-7124
▁okhttp	-7125
Anchor	-7126
indexing	-7127
▁entries	-7128
HA	-7129
▁geb	-7130
stagemonitor	-7131
AbstractMapBased	-7132
BufferedReader	-7133
default	-7134
RpcUpdateFlow	-7135
ensitive	-7136
JRDesign	-7137
spectator	-7138
ValuesCollection	-7139
$1(	-7140
jupiter	-7141
ChannelRequest	-7142
▁isDebugEnabled	-7143
22337203685	-7144
▁http	-7145
▁E	-7146
ObjectDataOutput	-7147
Aliases	-7148
target	-7149
library	-7150
US	-7151
random	-7152
IntFunction	-7153
Rename	-7154
0[12	-7155
thetic	-7156
StringTokenizer	-7157
Docs	-7158
▁TR	-7159
▁session	-7160
Skip	-7161
Leader	-7162
archiva	-7163
LIC	-7164
)[4]	-7165
TIME	-7166
sort	-7167
tg	-7168
Deprec	-7169
Conver	-7170
extended	-7171
KeyPair	-7172
Month	-7173
positories	-7174
Compound	-7175
UnmodifiableMap	-7176
27,	-7177
$11	-7178
044	-7179
▁can	-7180
vot	-7181
jna	-7182
▁curChar	-7183
versions	-7184
Scorer	-7185
Generate	-7186
neighbors	-7187
aris	-7188
AxisService	-7189
45)	-7190
curr	-7191
Versions	-7192
ally	-7193
▁select	-7194
TypeAnnotation	-7195
Scalar	-7196
CHEM	-7197
Coordinator	-7198
JavaScript	-7199
GeoPoint	-7200
▁SER	-7201
quot	-7202
WSDL	-7203
ProtocolType	-7204
hn	-7205
reshold	-7206
▁validate	-7207
assembly	-7208
xa	-7209
IntervalSet	-7210
Instant	-7211
ua	-7212
uling	-7213
Expect	-7214
0[17	-7215
Rev	-7216
22337203685477	-7217
▁region	-7218
Vault	-7219
▁buf	-7220
sftp	-7221
2233720368547758	-7222
OutputBuilder	-7223
▁NO	-7224
0[18	-7225
functional	-7226
Lit	-7227
Exists	-7228
vod	-7229
mediapackagevod	-7230
2949	-7231
INE	-7232
assert	-7233
fst	-7234
avail	-7235
avet	-7236
Chime	-7237
ece	-7238
JPQLParser	-7239
▁client	-7240
inality	-7241
Iam	-7242
Props	-7243
Width	-7244
javalite	-7245
▁exception	-7246
105.	-7247
Fre	-7248
IST	-7249
▁should	-7250
150105.	-7251
csv	-7252
63.<	-7253
AWSWAF	-7254
Flows	-7255
IntObjMapGO	-7256
ByteObjMapGO	-7257
CharObjMapGO	-7258
LongObjMapGO	-7259
ShortObjMapGO	-7260
▁binding	-7261
HttpHeader	-7262
GetApplication	-7263
ACK	-7264
FromJava	-7265
Business	-7266
mx	-7267
FloatDoubleMapGO	-7268
ured	-7269
Credential	-7270
Lucene	-7271
Portable	-7272
reflectasm	-7273
DoubleFloatMapGO	-7274
IB	-7275
Sorter	-7276
BinaryOperator	-7277
crypt	-7278
Multiplex	-7279
Substitu	-7280
$0$0$	-7281
handling	-7282
launcher	-7283
typ	-7284
Specifier	-7285
CB	-7286
sImpl	-7287
servo	-7288
▁24	-7289
AmazonSimple	-7290
▁getState	-7291
MessageLogger	-7292
NodeFactory	-7293
AWSIoT	-7294
consume	-7295
Authenticator	-7296
Initialization	-7297
git	-7298
▁per	-7299
Advice	-7300
maining	-7301
LongLongMapGO	-7302
RequestContext	-7303
acmp	-7304
Optimizer	-7305
BrowserVersion	-7306
TextArea	-7307
Recursive	-7308
TrackChange	-7309
ISO	-7310
▁AD	-7311
FF	-7312
ActionRequest	-7313
Unconditional	-7314
▁adv	-7315
▁14	-7316
RichIterable	-7317
WireFormat	-7318
ResourceType	-7319
0[13	-7320
NextToken	-7321
▁curKey	-7322
BlockingQueue	-7323
WPF	-7324
address	-7325
28,	-7326
neo	-7327
Upper	-7328
acmpca	-7329
Accept	-7330
lab	-7331
ClassWriter	-7332
▁unlock	-7333
blobstore	-7334
pass	-7335
StreamInput	-7336
uffle	-7337
providers	-7338
treew	-7339
FieldImpl	-7340
OnWrite	-7341
Pa	-7342
URLFetch	-7343
▁may	-7344
Simulation	-7345
SetGO	-7346
Iterators	-7347
execution	-7348
AnnotationWriter	-7349
ogo	-7350
Accumulate	-7351
status	-7352
▁finish	-7353
mg	-7354
ReferenceType	-7355
Impls	-7356
Pointcut	-7357
AbstractMethod	-7358
Allocator	-7359
Env	-7360
Overridden	-7361
cube	-7362
CTR	-7363
Msg	-7364
▁cmpl	-7365
VICE	-7366
ClientConnection	-7367
Fly	-7368
corba	-7369
usage	-7370
62.<	-7371
Joiner	-7372
revwalk	-7373
StackMap	-7374
MethodInfo	-7375
)>("/")	-7376
InstanceType	-7377
Templates	-7378
▁decode	-7379
>")	-7380
BU	-7381
▁member	-7382
sa	-7383
)>(")	-7384
FileManager	-7385
▁getStart	-7386
Workbook	-7387
MutableBag	-7388
Aead	-7389
HttpMethod	-7390
term	-7391
solute	-7392
▁supp	-7393
Distance	-7394
$1$1	-7395
fastparse	-7396
ripper	-7397
Merged	-7398
ntk	-7399
RecordStore	-7400
DO	-7401
Validate	-7402
rt	-7403
TaskRequest	-7404
MavenProject	-7405
0[19	-7406
BasedSequence	-7407
StatusProto	-7408
Latch	-7409
▁R	-7410
authorization	-7411
Exclu	-7412
FactHandle	-7413
64.<	-7414
ORM	-7415
ani	-7416
RetValue	-7417
dgm	-7418
FloatFloatMapGO	-7419
Configurable	-7420
IntOpenHashMap	-7421
Interrup	-7422
ensus	-7423
NOT	-7424
0[11	-7425
RegionResponse	-7426
Tls	-7427
Rds	-7428
▁defRetValue	-7429
emitter	-7430
ArrayType	-7431
▁getLocal	-7432
▁setValue	-7433
18:	-7434
NearCache	-7435
AmazonApiGateway	-7436
nod	-7437
rou	-7438
▁(")	-7439
AWSGlue	-7440
145	-7441
LongOpenHashMap	-7442
IntList	-7443
POINT	-7444
32]	-7445
ByteOpenHashMap	-7446
FloatOpenHashMap	-7447
ShortOpenHashMap	-7448
0001	-7449
Crosstab	-7450
Endian	-7451
▁requireNonNull	-7452
irectional	-7453
Tab	-7454
cellview	-7455
MENT	-7456
RubyArray	-7457
errors	-7458
ible	-7459
onym	-7460
AND	-7461
Notifier	-7462
producer	-7463
ObjectName	-7464
Capabilities	-7465
TableRequest	-7466
RID	-7467
algorithms	-7468
▁sync	-7469
frontend	-7470
$200(	-7471
48)	-7472
NavigableSet	-7473
StandardParser	-7474
sResponseProto	-7475
Robo	-7476
MO	-7477
)>("_	-7478
ek	-7479
ModuleBinding	-7480
wr	-7481
Circuit	-7482
crosstab	-7483
dence	-7484
Cidr	-7485
05	-7486
StreamWriter	-7487
IterableOnce	-7488
Clean	-7489
▁submit	-7490
census	-7491
Crypto	-7492
opencensus	-7493
13[	-7494
Alarm	-7495
DoubleIntMapGO	-7496
FloatLongMapGO	-7497
)>(")")	-7498
OVER	-7499
Inherit	-7500
DirectConnect	-7501
FMParser	-7502
FloatByteMapGO	-7503
FloatCharMapGO	-7504
DoubleByteMapGO	-7505
DoubleCharMapGO	-7506
FloatShortMapGO	-7507
DoubleShortMapGO	-7508
crete	-7509
nodemodel	-7510
FieldOptions	-7511
Escap	-7512
▁at	-7513
▁34	-7514
allocation	-7515
StringLiteral	-7516
eth	-7517
diagnostics	-7518
databaseaccess	-7519
Fu	-7520
0[2	-7521
XmlGenerator	-7522
ConfigurationSet	-7523
Alph	-7524
StreamJsonParser	-7525
Dependencies	-7526
DBIdentifier	-7527
gogo	-7528
IAtom	-7529
FST	-7530
crosstabs	-7531
▁64	-7532
matchers	-7533
Drop	-7534
Repl	-7535
Tables	-7536
InsnNode	-7537
Xmldb	-7538
Allowed	-7539
rough	-7540
ASTPair	-7541
Columns	-7542
▁query	-7543
secret	-7544
Caller	-7545
SetFactoryGO	-7546
spective	-7547
StatementContext	-7548
Unicast	-7549
▁G	-7550
▁getData	-7551
146	-7552
$13	-7553
Bidirectional	-7554
redicates	-7555
emfplus	-7556
HemfPlus	-7557
highlight	-7558
accessanalyzer	-7559
SimpleCharStream	-7560
149	-7561
OneofDescriptor	-7562
zon	-7563
TreeMultiset	-7564
BatchGet	-7565
▁connection	-7566
inner	-7567
fy	-7568
▁curr	-7569
CharOpenHashMap	-7570
Cli	-7571
CopyOnWrite	-7572
StatisticsUpdate	-7573
143	-7574
▁nu	-7575
threads	-7576
ONE	-7577
jaxen	-7578
HsqlNameManager	-7579
XDDF	-7580
prospec	-7581
ivot	-7582
ors	-7583
vention	-7584
▁buildPartial	-7585
HashCommon	-7586
HE	-7587
IResource	-7588
yard	-7589
AWSMedia	-7590
)>(-	-7591
▁status	-7592
RuleType	-7593
▁isAssignable	-7594
▁executorService	-7595
TokenFilter	-7596
la	-7597
Hbm	-7598
)>(7	-7599
152	-7600
CloudWatch	-7601
Acceptor	-7602
$10	-7603
snapshots	-7604
FlowContext	-7605
tooling	-7606
mascript	-7607
MultiReader	-7608
Coprocessor	-7609
FloatIntMapGO	-7610
XSLF	-7611
Audio	-7612
Signed	-7613
31]	-7614
▁balance	-7615
▁getNamespace	-7616
cognitoidentity	-7617
294967	-7618
ReentrantLock	-7619
urable	-7620
Reconfig	-7621
CTSdtContent	-7622
ciphers	-7623
Cmd	-7624
thought	-7625
thoughtworks	-7626
NG	-7627
NxActionReg	-7628
My	-7629
153	-7630
Hosted	-7631
solaris	-7632
Consist	-7633
Listeners	-7634
Transp	-7635
▁top	-7636
Indent	-7637
Synthetic	-7638
operationservice	-7639
Contents	-7640
▁getFunctional	-7641
err	-7642
startup	-7643
serp	-7644
OptionsRequest	-7645
29496729	-7646
gate	-7647
timestream	-7648
Streams	-7649
InstanceForType	-7650
▁was	-7651
dto	-7652
$300	-7653
PullRequest	-7654
scale	-7655
ObjectOutput	-7656
.",	-7657
otify	-7658
CSV	-7659
VoiceConnector	-7660
Bet	-7661
Plans	-7662
▁getSimpleName	-7663
ageMaker	-7664
ConstPool	-7665
Inotify	-7666
Grant	-7667
inspect	-7668
Bind	-7669
thetics	-7670
HttpServer	-7671
KeyStore	-7672
▁my	-7673
265	-7674
ipper	-7675
CHEMA	-7676
Introspector	-7677
▁LOGGER	-7678
FileInputStream	-7679
SpaceQuota	-7680
MutableSet	-7681
Kotlin	-7682
wine	-7683
ContentImpl	-7684
157	-7685
IntMapFactoryGO	-7686
ByteMapFactoryGO	-7687
CharMapFactoryGO	-7688
LongMapFactoryGO	-7689
UnifiedSet	-7690
FloatObjMapGO	-7691
DoubleObjMapGO	-7692
▁isEnd	-7693
entwine	-7694
151	-7695
entwinemedia	-7696
InotifyProtos	-7697
ContextProto	-7698
Dns	-7699
DomainName	-7700
66.<	-7701
structor	-7702
142	-7703
HFile	-7704
Detach	-7705
Delayed	-7706
authenticator	-7707
▁emptyMap	-7708
148	-7709
TypeSystem	-7710
XA	-7711
visio	-7712
MAP	-7713
Video	-7714
RuleSet	-7715
converterImpl	-7716
$16	-7717
Parsing	-7718
aegis	-7719
158	-7720
Kms	-7721
ClassScope	-7722
OpenJPA	-7723
65.<	-7724
ValueType	-7725
▁doubleValue	-7726
datas	-7727
JaxbHbm	-7728
EmailService	-7729
Approval	-7730
grouplens	-7731
NumberFormat	-7732
ObjMapFactoryGO	-7733
141	-7734
Paths	-7735
▁getClient	-7736
TypeAdapter	-7737
256	-7738
clientside	-7739
▁2,	-7740
CountDown	-7741
Trail	-7742
FieldMapping	-7743
DEN	-7744
AmazonWork	-7745
dsl	-7746
custom	-7747
155	-7748
509	-7749
Rolling	-7750
attach	-7751
fake	-7752
ampl	-7753
predicates	-7754
addc	-7755
quotas	-7756
ChannelBuffer	-7757
Inheritance	-7758
sProto	-7759
▁zz	-7760
adapter	-7761
locator	-7762
xz	-7763
264	-7764
0[20	-7765
Opt	-7766
ObjectPool	-7767
tos	-7768
bd	-7769
RegionLoad	-7770
Eth	-7771
opswork	-7772
opsworkscm	-7773
Facade	-7774
Play	-7775
LogEntry	-7776
ators	-7777
ingClass	-7778
MessageContext	-7779
35]	-7780
Ripper	-7781
embedded	-7782
▁nodePath	-7783
KD	-7784
rm	-7785
IntArray	-7786
ConnectionPool	-7787
Suggest	-7788
ServerName	-7789
objec	-7790
itation	-7791
Bad	-7792
codings	-7793
▁forEach	-7794
HttpHeaders	-7795
PropertiesImpl	-7796
smaliParser	-7797
2012.	-7798
▁sing	-7799
2[1]	-7800
)>(8	-7801
Install	-7802
objectos	-7803
typecon	-7804
uch	-7805
Year	-7806
Room	-7807
JoinPoint	-7808
▁up	-7809
licensemanager	-7810
Throwing	-7811
archetype	-7812
Profiler	-7813
UserStore	-7814
Ord	-7815
VisitorAction	-7816
▁newMutableMap	-7817
▁getNode	-7818
ErrorType	-7819
▁getObject	-7820
AmazonChime	-7821
ided	-7822
ConverterImpls	-7823
Alignment	-7824
DoubleLongMapGO	-7825
159	-7826
0[$	-7827
dc	-7828
ProgressMonitor	-7829
OST	-7830
Std	-7831
switchyard	-7832
SerializedSize	-7833
ActionQueue	-7834
AttributeName	-7835
uman	-7836
▁onError	-7837
cert	-7838
PrImpl	-7839
ColumnValue	-7840
46)	-7841
evalu	-7842
▁48	-7843
TagsRequest	-7844
ivs	-7845
_1_1	-7846
33]	-7847
Bcel	-7848
release	-7849
used	-7850
Works	-7851
Cause	-7852
Equinox	-7853
JavaClass	-7854
Automaton	-7855
30\	-7856
COM	-7857
JRExpression	-7858
▁128	-7859
Xls	-7860
Expected	-7861
QueryImpl	-7862
mediastore	-7863
ExtensionRange	-7864
injection	-7865
Liquibase	-7866
▁getIndex	-7867
MatchSet	-7868
NullKey	-7869
ObjObjMapGO	-7870
."	-7871
▁isStart	-7872
ression	-7873
_6__	-7874
FastList	-7875
loop	-7876
Life	-7877
29,	-7878
67.<	-7879
Retri	-7880
mvc	-7881
Prospective	-7882
Blank	-7883
CharMatcher	-7884
Percentage	-7885
translator	-7886
wn	-7887
ecutor	-7888
projection	-7889
AmazonElastic	-7890
lake	-7891
DAT	-7892
Comm	-7893
PropertyName	-7894
Absolute	-7895
dexecutor	-7896
Lightsail	-7897
Av	-7898
gray	-7899
ClusterRequest	-7900
Obs	-7901
32,	-7902
1[1]	-7903
Additional	-7904
RpcController	-7905
rase	-7906
endpoint	-7907
Commandline	-7908
subsystem	-7909
Calculator	-7910
migrationhub	-7911
▁scope	-7912
DiagnosticType	-7913
Polygon	-7914
Multiple	-7915
kaani	-7916
▁encode	-7917
Registrar	-7918
tukaani	-7919
DataValue	-7920
Hub	-7921
extractor	-7922
ersey	-7923
Normalized	-7924
SetIterator	-7925
ureviewer	-7926
codegurureviewer	-7927
serverless	-7928
ObjectInput	-7929
ContentAssist	-7930
ient	-7931
dataflow	-7932
34]	-7933
SY	-7934
Little	-7935
Suppressed	-7936
5[$	-7937
zation	-7938
DomImpl	-7939
▁response	-7940
Estim	-7941
SearchPb	-7942
$0(	-7943
clas	-7944
graylog	-7945
Contains	-7946
jansi	-7947
8(	-7948
phase	-7949
▁bytes	-7950
Dav	-7951
Card	-7952
acti	-7953
26.	-7954
Ringbuffer	-7955
Arp	-7956
▁block	-7957
available	-7958
Jack	-7959
Coord	-7960
tracing	-7961
valves	-7962
tracker	-7963
netcdf	-7964
156	-7965
PackageBinding	-7966
LittleEndian	-7967
ofj	-7968
▁br	-7969
0[4]	-7970
stackmap	-7971
XWPF	-7972
jose	-7973
secrets	-7974
Cut	-7975
)>("<	-7976
FieldUpdater	-7977
Regions	-7978
AWSCredentials	-7979
CTTable	-7980
AddFlow	-7981
▁getSigning	-7982
cm	-7983
▁readInt	-7984
secretsmanager	-7985
Observation	-7986
MethodOptions	-7987
MethodNode	-7988
StatusResult	-7989
mited	-7990
Continu	-7991
with	-7992
HistoryServer	-7993
▁runtime	-7994
Completed	-7995
▁split	-7996
buckets	-7997
Loading	-7998
generators	-7999
Insight	-8000
▁dataflow	-8001
apip	-8002
datapip	-8003
datapipeline	-8004
▁checkArgument	-8005
RemoveFlow	-8006
49)	-8007
onf	-8008
DescribeEvent	-8009
iller	-8010
CTShape	-8011
Cnt	-8012
ECON	-8013
50)	-8014
JsonReader	-8015
▁non	-8016
Bool	-8017
▁19	-8018
dragon	-8019
Force	-8020
Human	-8021
__3	-8022
Valve	-8023
MapProxy	-8024
imbus	-8025
StructLayout	-8026
FieldDeclaration	-8027
Sequencer	-8028
Io	-8029
KMS	-8030
PL	-8031
▁hasMore	-8032
FileOutputStream	-8033
fuses	-8034
EClass	-8035
fusesource	-8036
MutationProto	-8037
▁[")	-8038
REGION	-8039
▁putAll	-8040
False	-8041
not	-8042
Closed	-8043
Helpers	-8044
ModulesServicePb	-8045
ct	-8046
▁det	-8047
Scale	-8048
diagnose	-8049
networking	-8050
OVERRID	-8051
LinkedHash	-8052
ORD	-8053
FV	-8054
TA	-8055
▁-1,	-8056
AsMap	-8057
jor	-8058
darwin	-8059
JavaRecognizer	-8060
▁configuration	-8061
177	-8062
▁operation	-8063
oval	-8064
InjectionPoint	-8065
DataProto	-8066
swoval	-8067
GET	-8068
Activa	-8069
KeyFormat	-8070
MapProto	-8071
TypeAlias	-8072
▁OPERATION	-8073
icon	-8074
tun	-8075
IntPredicate	-8076
nimbus	-8077
▁getArn	-8078
processing	-8079
KeyValuesView	-8080
69.<	-8081
▁one	-8082
ASE	-8083
Then	-8084
3>	-8085
dynamicconfig	-8086
▁getJob	-8087
▁assert	-8088
defined	-8089
nimbusds	-8090
▁SERVICE	-8091
▁run	-8092
REE	-8093
odmg	-8094
CodePoint	-8095
CacheManager	-8096
Walk	-8097
6020.	-8098
GC	-8099
zy	-8100
ITree	-8101
▁skip	-8102
Partic	-8103
RouteTable	-8104
zen	-8105
FileInfo	-8106
▁SIGN	-8107
Lagarto	-8108
Hmac	-8109
NodeTraversal	-8110
jcodings	-8111
SourceImpl	-8112
36]	-8113
XmldbURI	-8114
undr	-8115
LineReaderImpl	-8116
OfWork	-8117
ached	-8118
▁getFirstChild	-8119
ReaderBased	-8120
RawAsync	-8121
certificate	-8122
ELParser	-8123
LazyList	-8124
Outcom	-8125
Done	-8126
131026.	-8127
Catch	-8128
TestStep	-8129
aim	-8130
VisitorAdapter	-8131
154	-8132
posal	-8133
▁base	-8134
▁sign	-8135
LeftTuple	-8136
phi	-8137
repo	-8138
Kernel	-8139
JsonArray	-8140
rona	-8141
Propag	-8142
agrona	-8143
uffff	-8144
Notebook	-8145
unicode	-8146
▁attribute	-8147
Begin	-8148
WebServer	-8149
Jmx	-8150
JavaElement	-8151
deployment	-8152
Subject	-8153
ecalc	-8154
thundr	-8155
ied	-8156
ewks	-8157
threewks	-8158
WN	-8159
tcp	-8160
EntityManager	-8161
Categor	-8162
▁contents	-8163
oriz	-8164
Cnx	-8165
ecider	-8166
ASTParser	-8167
UInt	-8168
ClientVpn	-8169
References	-8170
Widget	-8171
MethodAdapter	-8172
bi	-8173
▁found	-8174
GroupsResult	-8175
$5:	-8176
CodeGen	-8177
0[23	-8178
Hikari	-8179
▁getField	-8180
kill	-8181
BasicEntry	-8182
funzy	-8183
39]	-8184
TermVector	-8185
▁CH	-8186
RdsDb	-8187
usagestatistics	-8188
Deferred	-8189
▁wr	-8190
Slice	-8191
visor	-8192
Invit	-8193
▁suc	-8194
GroovyObject	-8195
TypePattern	-8196
Wrap	-8197
▁rem	-8198
AmazonPinpoint	-8199
▁fields	-8200
▁defaultValue	-8201
CountDownLatch	-8202
SourceCodeInfo	-8203
Initial	-8204
scoping	-8205
▁strategy	-8206
free	-8207
NxmOf	-8208
16.	-8209
UnaryOperator	-8210
▁jjnew	-8211
ispatch	-8212
Rollback	-8213
UCT	-8214
▁ref	-8215
flows	-8216
11[	-8217
dragonfly	-8218
▁advancedConfig	-8219
Threshold	-8220
68.<	-8221
FIELD	-8222
shake	-8223
gestion	-8224
ClassVisitor	-8225
▁compareTo	-8226
UnicodeData	-8227
member	-8228
egister	-8229
3\	-8230
dragonflybsd	-8231
holder	-8232
▁exists	-8233
Classification	-8234
AttributeContext	-8235
jfunk	-8236
Round	-8237
OffHeap	-8238
txt	-8239
TEXT	-8240
HS	-8241
▁5:	-8242
Dead	-8243
mgm	-8244
mgmtp	-8245
cryption	-8246
▁container	-8247
51)	-8248
swingui	-8249
TCP	-8250
csp	-8251
▁flush	-8252
Indirect	-8253
▁sort	-8254
machineLearning	-8255
ey	-8256
▁ENDPOINT	-8257
Capable	-8258
1449	-8259
70.<	-8260
ValuePair	-8261
StringValue	-8262
Accessible	-8263
automaton	-8264
typehandling	-8265
move	-8266
▁pred	-8267
Download	-8268
Filtering	-8269
computeoptimizer	-8270
38]	-8271
Steps	-8272
13.	-8273
blocktree	-8274
ConfigBuilder	-8275
rat	-8276
sbti	-8277
Idle	-8278
ET	-8279
0[24	-8280
Orm	-8281
)>("]")	-8282
Tagged	-8283
booleans	-8284
▁Client	-8285
MV	-8286
_9	-8287
ThreadFactory	-8288
ReferenceEntry	-8289
Components	-8290
TemplateResult	-8291
subs	-8292
opc	-8293
JAXB	-8294
▁endsWith	-8295
utilities	-8296
InputImpl	-8297
enum	-8298
CTPivot	-8299
▁getCreation	-8300
Scala	-8301
168	-8302
utility	-8303
StateCnt	-8304
▁jjnewStateCnt	-8305
DoubleMapFactory	-8306
Hand	-8307
OMElement	-8308
Scatter	-8309
JavaModel	-8310
replication	-8311
PN	-8312
SnapshotDiff	-8313
LongMapFactory	-8314
MA	-8315
▁getRequest	-8316
Forecast	-8317
arp	-8318
4[$	-8319
tables	-8320
TargetString	-8321
MutableObject	-8322
Ctr	-8323
36,	-8324
ANCED	-8325
▁onSuccess	-8326
URLConnection	-8327
ITE	-8328
17012	-8329
unic	-8330
37]	-8331
etsi	-8332
Tar	-8333
MethodScope	-8334
NodesNode	-8335
1311	-8336
170124.	-8337
UnitOfWork	-8338
Reactive	-8339
ImmutableBag	-8340
isdom	-8341
ys	-8342
near	-8343
Requires	-8344
▁calc	-8345
PrimitiveType	-8346
Defined	-8347
onesProtos	-8348
Sftp	-8349
VANCED	-8350
cognitosync	-8351
Splitter	-8352
Mono	-8353
Created	-8354
BaseEncoding	-8355
QUE	-8356
Dfs	-8357
invo	-8358
ForeignKey	-8359
Gzip	-8360
RegExp	-8361
▁matches	-8362
EmfPlus	-8363
▁declar	-8364
▁bits	-8365
tojava	-8366
relational	-8367
road	-8368
Rg	-8369
BTree	-8370
▁problem	-8371
zlib	-8372
RangeMap	-8373
Locking	-8374
Intr	-8375
Trial	-8376
RoleArn	-8377
▁NULL	-8378
HeaderProtos	-8379
Recipe	-8380
ClassType	-8381
)>("[	-8382
esc	-8383
▁SIGNING	-8384
exp	-8385
▁0]	-8386
stuff	-8387
assign	-8388
miter	-8389
▁ME	-8390
▁enum	-8391
dell	-8392
▁newImmutableMap	-8393
Suffix	-8394
wait	-8395
dellroad	-8396
ASTVisitor	-8397
tasks	-8398
Under	-8399
IntMapFactory	-8400
ByteMapFactory	-8401
CharMapFactory	-8402
FloatMapFactory	-8403
ShortMapFactory	-8404
ExecuteTime	-8405
Replacement	-8406
2_	-8407
▁ADVANCED	-8408
$1$1:	-8409
AccountId	-8410
gephi	-8411
14496.	-8412
ServiceError	-8413
lakeformation	-8414
ProviderFactory	-8415
DBBroker	-8416
Listenable	-8417
close	-8418
Termination	-8419
FieldSet	-8420
Replay	-8421
Avl	-8422
connections	-8423
NAdd	-8424
Warn	-8425
Hk	-8426
▁allow	-8427
piccolo	-8428
▁listener	-8429
0190	-8430
ef	-8431
DTO	-8432
sbinary	-8433
poly	-8434
general	-8435
OVERRIDDEN	-8436
▁isEndpoint	-8437
ServerRequest	-8438
10.	-8439
▁setName	-8440
▁all	-8441
▁setAWS	-8442
TypeToken	-8443
▁getCreated	-8444
▁exp	-8445
TO	-8446
$300(	-8447
▁v	-8448
Uninitialized	-8449
▁getAwsResponse	-8450
Keyed	-8451
gf	-8452
datecalc	-8453
objectlab	-8454
Contex	-8455
▁send	-8456
Regexp	-8457
▁getMethod	-8458
ServiceException	-8459
UnresolvedType	-8460
0[5]	-8461
CoreAttrs	-8462
AbstractBase	-8463
dated	-8464
Swe	-8465
▁total	-8466
upload	-8467
Convention	-8468
hind	-8469
Final	-8470
▁jjCheck	-8471
▁jjCheckNAdd	-8472
signature	-8473
Hex	-8474
01903.	-8475
$15	-8476
▁getElement	-8477
booter	-8478
DatabaseField	-8479
Decl	-8480
▁getColumn	-8481
Head	-8482
TableDescriptor	-8483
nodetype	-8484
▁function	-8485
BaseJ	-8486
▁fill	-8487
gation	-8488
ere	-8489
Small	-8490
52)	-8491
ArrayDeque	-8492
Horiz	-8493
30]	-8494
▁description	-8495
Configurer	-8496
inet	-8497
allback	-8498
mustache	-8499
XmlParser	-8500
167	-8501
▁__	-8502
CtElement	-8503
icture	-8504
Compressor	-8505
abs	-8506
country	-8507
Cleaner	-8508
ism	-8509
165	-8510
Graphics	-8511
les	-8512
sequ	-8513
tracking	-8514
packaging	-8515
atype	-8516
converters	-8517
ConfigResult	-8518
▁rule	-8519
RecordType	-8520
AmazonSageMaker	-8521
175	-8522
RegionSpecifier	-8523
sym	-8524
161	-8525
)>("")	-8526
Reconfiguration	-8527
35,	-8528
Schemas	-8529
▁event	-8530
permission	-8531
Smile	-8532
jute	-8533
Exit	-8534
rtextarea	-8535
synthetics	-8536
SequenceType	-8537
monitoring	-8538
Executions	-8539
Flyweight	-8540
Shuffle	-8541
▁attributes	-8542
TypeCheck	-8543
TaskQueueQuery	-8544
journal	-8545
▁toBuilder	-8546
LongList	-8547
Dump	-8548
ParserRule	-8549
▁40	-8550
xBaseJ	-8551
0[22	-8552
artbe	-8553
Deregister	-8554
1408	-8555
Digester	-8556
bex	-8557
Delimited	-8558
▁are	-8559
MD	-8560
artbeat	-8561
bexgrammar	-8562
package	-8563
RunTime	-8564
inct	-8565
wrap	-8566
▁module	-8567
CountryCode	-8568
▁comple	-8569
StreamOutput	-8570
Already	-8571
stone	-8572
evidence	-8573
CTH	-8574
start	-8575
Indexing	-8576
Updates	-8577
keyword	-8578
iface	-8579
3[1]	-8580
CacheKey	-8581
hierarch	-8582
Yaml	-8583
Canonic	-8584
inference	-8585
▁store	-8586
71.<	-8587
Documentation	-8588
escape	-8589
Directed	-8590
WebACL	-8591
ww	-8592
SION	-8593
OgnlParser	-8594
compact	-8595
hsmf	-8596
▁application	-8597
ifiers	-8598
IdentityHashMap	-8599
Configs	-8600
▁cat	-8601
PAT	-8602
ObjMapFactory	-8603
Pdf	-8604
Filler	-8605
dpn	-8606
Warning	-8607
POI	-8608
weixin	-8609
166	-8610
ten	-8611
fail	-8612
www	-8613
Separator	-8614
agram	-8615
CTRun	-8616
CTRunTrackChange	-8617
UnionType	-8618
Inventory	-8619
OFF	-8620
JRXml	-8621
Antlr	-8622
ane	-8623
stateSet	-8624
▁jjstateSet	-8625
ParserHelper	-8626
169	-8627
Gi	-8628
▁V	-8629
▁getTag	-8630
ResourceBundle	-8631
BeanManagerImpl	-8632
ProfileResult	-8633
179	-8634
)>("-	-8635
Invitation	-8636
▁getChild	-8637
waa	-8638
LagartoParser	-8639
▁27	-8640
Exceptions	-8641
IF	-8642
Aff	-8643
mwaa	-8644
wei	-8645
mwe	-8646
Defaults	-8647
▁getTime	-8648
Calls	-8649
Extra	-8650
LR	-8651
true	-8652
inspire	-8653
▁server	-8654
hua	-8655
terms	-8656
Vertex	-8657
huawei	-8658
Jsr	-8659
31,	-8660
34,	-8661
ECountry	-8662
Modifiers	-8663
Choice	-8664
guided	-8665
constraints	-8666
NodeConnector	-8667
▁previous	-8668
MethodGenerator	-8669
CI	-8670
▁15	-8671
WR	-8672
▁53	-8673
zed	-8674
Fixn	-8675
Undo	-8676
clud	-8677
▁head	-8678
Fixnum	-8679
InputState	-8680
Failover	-8681
PostProcessor	-8682
servicequotas	-8683
Jackson	-8684
Prepare	-8685
Convert	-8686
Experim	-8687
dfa	-8688
0[25	-8689
LifeCycle	-8690
Deletion	-8691
mented	-8692
Accelerator	-8693
itu	-8694
Skill	-8695
Extendable	-8696
AttributeValue	-8697
FileSet	-8698
enhanced	-8699
Contextual	-8700
Hit	-8701
5[0]	-8702
▁op	-8703
authentication	-8704
ReferenceQueue	-8705
EntityPersister	-8706
Expiry	-8707
Voc	-8708
Construct	-8709
Cron	-8710
regional	-8711
Blobstore	-8712
AesCtr	-8713
ChangeListener	-8714
Vocab	-8715
TypeRequest	-8716
licate	-8717
Quanti	-8718
TimeMillis	-8719
SubList	-8720
LongFunction	-8721
ModuleRevision	-8722
Merger	-8723
ibuted	-8724
19:	-8725
EventProto	-8726
KieModule	-8727
8()>()	-8728
When	-8729
chase	-8730
Gss	-8731
▁getEnd	-8732
164	-8733
Altern	-8734
Nfa	-8735
▁isValid	-8736
Thredds	-8737
SeqMap	-8738
Advanced	-8739
▁getInt	-8740
▁containsNullKey	-8741
GetAll	-8742
fielddata	-8743
constraint	-8744
TaskResult	-8745
zzy	-8746
▁partition	-8747
MutableMessage	-8748
▁copyOf	-8749
73.<	-8750
Systems	-8751
ipant	-8752
Bookmark	-8753
packed	-8754
Budget	-8755
Peering	-8756
▁kotlin	-8757
OUT	-8758
alias	-8759
MemoryIO	-8760
gml	-8761
Pane	-8762
recovery	-8763
Gau	-8764
Outer	-8765
140815.	-8766
Receive	-8767
▁properties	-8768
163	-8769
HashFunction	-8770
SIX	-8771
▁EN	-8772
▁FREE	-8773
esh	-8774
IVE	-8775
compo	-8776
▁writer	-8777
194	-8778
variable	-8779
MetaMethod	-8780
Footer	-8781
scheduler	-8782
resourcegroups	-8783
activejdbc	-8784
Other	-8785
ishStemmer	-8786
DefaultRequest	-8787
▁serviceName	-8788
getCallSiteArray	-8789
Week	-8790
▁tagBits	-8791
Flink	-8792
losed	-8793
Matchers	-8794
192	-8795
roy	-8796
EW	-8797
Purchase	-8798
AppInstance	-8799
12[	-8800
CompiledQuery	-8801
Encap	-8802
PluginProtos	-8803
yacc	-8804
BR	-8805
37,	-8806
__4	-8807
Getter	-8808
BaseType	-8809
Formation	-8810
Jetty	-8811
▁ret	-8812
Inser	-8813
wisdom	-8814
openapi	-8815
struct	-8816
hook	-8817
Sl	-8818
PrivateKey	-8819
DoubleFunction	-8820
DescriptionImpl	-8821
Requests	-8822
MultiValue	-8823
172	-8824
ontal	-8825
▁does	-8826
sonic	-8827
72.<	-8828
▁maybe	-8829
BFile	-8830
fluidsonic	-8831
Spark	-8832
Located	-8833
memtree	-8834
Forwar	-8835
encryption	-8836
ShortCircuit	-8837
ToFloat	-8838
Ljavax	-8839
▁getMarker	-8840
FlowMod	-8841
freebsd	-8842
ToLongBits	-8843
Sampl	-8844
ErrorStrategy	-8845
▁jo	-8846
definitions	-8847
SortedMultiset	-8848
HSLF	-8849
▁stop	-8850
Proposal	-8851
IFI	-8852
CacheImpl	-8853
BitField	-8854
Serializers	-8855
Configurations	-8856
Trunc	-8857
cdi	-8858
ImmutableObject	-8859
alt	-8860
CHAR	-8861
04\	-8862
EmptySortedMap	-8863
BinaryExpression	-8864
Mixing	-8865
cloudhsmv	-8866
NodeRenderer	-8867
savings	-8868
▁ver	-8869
Carbon	-8870
nex	-8871
LOCK	-8872
CachePool	-8873
pbcast	-8874
JRPrint	-8875
BugInstance	-8876
0[6]	-8877
Hql	-8878
255	-8879
AWSService	-8880
CharBuffer	-8881
typeconvert	-8882
spector	-8883
eventbus	-8884
savingsplans	-8885
While	-8886
next	-8887
25.	-8888
AccessLog	-8889
sResponseData	-8890
ServiceRegistry	-8891
AppIdentity	-8892
ness	-8893
060	-8894
datatypes	-8895
Weigh	-8896
GameSession	-8897
Inclu	-8898
digester	-8899
▁setProperty	-8900
POSIX	-8901
Anom	-8902
ubmit	-8903
▁35	-8904
sembler	-8905
▁factory	-8906
)>("\"	-8907
Prototype	-8908
54)	-8909
elf	-8910
Person	-8911
[][],	-8912
templates	-8913
AttributesResult	-8914
response	-8915
bour	-8916
53)	-8917
oracle	-8918
Bin	-8919
SecurityProtos	-8920
Throttle	-8921
Ws	-8922
GroovyRecognizer	-8923
Prediction	-8924
TokenIdentifier	-8925
number	-8926
Striped	-8927
SimpleSystems	-8928
jam	-8929
Hkdf	-8930
ighbour	-8931
MessageException	-8932
▁getToken	-8933
Capture	-8934
199	-8935
LoggerFactory	-8936
SavingsPlans	-8937
vs	-8938
addressing	-8939
PassConfig	-8940
Dpn	-8941
nearcache	-8942
TreeVisitor	-8943
CharArrayMap	-8944
chm	-8945
▁POST	-8946
dMap	-8947
Renew	-8948
ClientBuilder	-8949
HyperParameter	-8950
ListenableFuture	-8951
POP	-8952
CFG	-8953
ise	-8954
crim	-8955
▁0.	-8956
IndexRequest	-8957
Tick	-8958
CacheDirective	-8959
173	-8960
HIT	-8961
split	-8962
TimeRange	-8963
AmazonLightsail	-8964
▁elements	-8965
▁try	-8966
ats	-8967
DescribeDB	-8968
serialize	-8969
MM	-8970
Rad	-8971
PrettyPrinter	-8972
▁bind	-8973
Insensitive	-8974
CollectionOps	-8975
DataStore	-8976
Vocabul	-8977
Sax	-8978
▁36	-8979
Attributed	-8980
Pip	-8981
Example	-8982
Timeline	-8983
Nat	-8984
Resolvable	-8985
StyleAttributes	-8986
▁adap	-8987
EventDetails	-8988
▁succ	-8989
▁aj	-8990
CharOperation	-8991
178	-8992
130918.	-8993
SharedSession	-8994
)>(10	-8995
yth	-8996
neutronvpn	-8997
Notify	-8998
rpcs	-8999
▁location	-9000
)>(32)	-9001
SPACE	-9002
passes	-9003
ULATOR	-9004
ernary	-9005
▁calculate	-9006
cedures	-9007
Gauge	-9008
GetContainer	-9009
EndpointResult	-9010
▁super	-9011
cursor	-9012
▁cluster	-9013
BER	-9014
HashBiMap	-9015
URCE	-9016
Chm	-9017
ErrorHandling	-9018
Cnxn	-9019
MethodDescriptor	-9020
Hidden	-9021
ActionLexer	-9022
tests	-9023
▁compile	-9024
RunImpl	-9025
Points	-9026
POPULATOR	-9027
JobSummary	-9028
SecurityToken	-9029
ResolverImpl	-9030
Waiter	-9031
external	-9032
Solver	-9033
nds	-9034
fields	-9035
▁getBytes	-9036
MI	-9037
AwsRdsDb	-9038
Rgb	-9039
KeyMixing	-9040
TypeConstants	-9041
TypeResolver	-9042
Rank	-9043
Less	-9044
SimpleText	-9045
BasicBlock	-9046
Bidi	-9047
Coverage	-9048
foli	-9049
AmazonKinesis	-9050
AmazonIdentity	-9051
Provi	-9052
Units	-9053
MergePolicy	-9054
ColumnFamily	-9055
mediate	-9056
Corba	-9057
__8	-9058
Wan	-9059
WithIOException	-9060
▁getApplication	-9061
LambdaExpression	-9062
Ack	-9063
tar	-9064
ClassMetaData	-9065
▁6:	-9066
SharedInputState	-9067
6[0]	-9068
▁22	-9069
director	-9070
Factor	-9071
MessageFlyweight	-9072
38,	-9073
ruptor	-9074
GetUser	-9075
PrimaryKey	-9076
ContextFactory	-9077
LimitExceeded	-9078
OAuth	-9079
LocalDate	-9080
Horizontal	-9081
TypeSystemHolder	-9082
Fully	-9083
Unbox	-9084
Packages	-9085
Clob	-9086
rict	-9087
StandardTable	-9088
ISource	-9089
Soap	-9090
Tracer	-9091
$6:	-9092
Slow	-9093
Ternary	-9094
LatL	-9095
▁getSchema	-9096
LeafReader	-9097
JsonWriter	-9098
BrokerImpl	-9099
cessed	-9100
onen	-9101
MethodSignature	-9102
Gson	-9103
Heartbeat	-9104
Regional	-9105
▁release	-9106
75.<	-9107
▁EX	-9108
Revoke	-9109
Portfoli	-9110
Integr	-9111
Customer	-9112
7[$	-9113
Secondary	-9114
DFS	-9115
BuildException	-9116
ImmutableEntry	-9117
PUT	-9118
▁vals	-9119
forward	-9120
$17	-9121
▁2147483647	-9122
ParameterType	-9123
ConformancePack	-9124
econd	-9125
Stateful	-9126
RewriteRule	-9127
ingMode	-9128
Combined	-9129
ActionType	-9130
HeaderProto	-9131
0\	-9132
ConnectorProfile	-9133
1)]	-9134
strats	-9135
▁but	-9136
Scoped	-9137
runner	-9138
ynchron	-9139
rhq	-9140
▁ognl	-9141
ReplicationTask	-9142
__7	-9143
64:	-9144
BuilderFactory	-9145
162	-9146
HttpChannel	-9147
ApprovalRule	-9148
OO	-9149
▁bl	-9150
XExpression	-9151
▁wrap	-9152
Multimaps	-9153
▁peek	-9154
finished	-9155
DataSize	-9156
ChannelResult	-9157
Tape	-9158
range	-9159
ength	-9160
▁constant	-9161
CharPredicate	-9162
▁getAnnotation	-9163
locate	-9164
Through	-9165
Delimiter	-9166
ObjectArrayMap	-9167
wk	-9168
acet	-9169
andra	-9170
Unused	-9171
__9	-9172
ham	-9173
XHTML	-9174
assandra	-9175
RecoveredElement	-9176
solver	-9177
ftable	-9178
Rewriter	-9179
Mp	-9180
▁addSuppressed	-9181
lomer	-9182
IdentityMap	-9183
Indexes	-9184
RubyHash	-9185
slice	-9186
headius	-9187
decimal	-9188
TrafficMirror	-9189
rf	-9190
CacheBuilder	-9191
lomerate	-9192
▁getLength	-9193
AbstractDouble	-9194
Feed	-9195
ga	-9196
onenote	-9197
appregistry	-9198
tributor	-9199
bitbucket	-9200
IndexShard	-9201
RipperParser	-9202
DeleteRequest	-9203
fixed	-9204
SettingsRequest	-9205
Into	-9206
LineNumber	-9207
▁uninterpreted	-9208
▁getInput	-9209
ECONDS	-9210
Fork	-9211
detective	-9212
Sug	-9213
▁PR	-9214
Inspector	-9215
onts	-9216
▁join	-9217
▁pattern	-9218
renderer	-9219
timestreamwrite	-9220
Plane	-9221
ading	-9222
TasksResponse	-9223
Multipath	-9224
ToIntBits	-9225
speed	-9226
DefinitionImpl	-9227
$1$	-9228
ole	-9229
curio	-9230
JobsResult	-9231
Strength	-9232
▁mul	-9233
Boundary	-9234
DomainRequest	-9235
VirtualGateway	-9236
Acls	-9237
crest	-9238
171	-9239
sical	-9240
SeqView	-9241
VersionsResult	-9242
▁floatToIntBits	-9243
ertificat	-9244
▁hasPayload	-9245
uber	-9246
▁30	-9247
__5	-9248
sXML	-9249
FleetRequest	-9250
SnapshotRegion	-9251
▁fromString	-9252
▁identifier	-9253
width	-9254
AvlNode	-9255
▁429496729	-9256
autobean	-9257
dispatch	-9258
JO	-9259
polly	-9260
Optimized	-9261
uction	-9262
Pen	-9263
Rows	-9264
SuccessResponse	-9265
other	-9266
ComponentType	-9267
ysical	-9268
▁8:	-9269
Background	-9270
▁cre	-9271
leaf	-9272
Tom	-9273
180	-9274
bw	-9275
Instantiator	-9276
55)	-9277
MessageDigest	-9278
TSDR	-9279
57)	-9280
Nano	-9281
ipFile	-9282
AmazonRDS	-9283
ActionListener	-9284
alizable	-9285
▁backtracking	-9286
BuildContext	-9287
TableCell	-9288
ational	-9289
45]	-9290
74.<	-9291
Ti	-9292
15060	-9293
Unexpected	-9294
Comments	-9295
DataConfig	-9296
IndexOf	-9297
ARG	-9298
Unfinished	-9299
Expectation	-9300
176	-9301
CustomXml	-9302
ario	-9303
STRING	-9304
▁writeInt	-9305
Csv	-9306
PropertyBuilder	-9307
elemental	-9308
pose	-9309
IProgressMonitor	-9310
ShapeType	-9311
▁parseInt	-9312
appidentity	-9313
okie	-9314
scanpos	-9315
insi	-9316
tags	-9317
inputPtr	-9318
NetcdfFile	-9319
enario	-9320
184	-9321
▁err	-9322
Sen	-9323
Anomaly	-9324
Shap	-9325
AbstractCache	-9326
ListImpl	-9327
RpcHeaderProtos	-9328
IRFactory	-9329
JavaLexer	-9330
BoundType	-9331
PER	-9332
Translation	-9333
hamcrest	-9334
76.<	-9335
insics	-9336
HAService	-9337
▁toCharArray	-9338
56)	-9339
ifmo	-9340
0002\	-9341
ental	-9342
Director	-9343
▁methodObject	-9344
tl	-9345
▁uninitialized	-9346
32.	-9347
Placeholder	-9348
buildpack	-9349
InfoBuilder	-9350
Transi	-9351
▁resolved	-9352
OrderedMap	-9353
Late	-9354
ClusterService	-9355
Subset	-9356
▁getBoolean	-9357
maph	-9358
LongPredicate	-9359
etr	-9360
YangInstance	-9361
finder	-9362
Hsm	-9363
LRU	-9364
▁dest	-9365
Intrinsics	-9366
14[	-9367
maphore	-9368
projects	-9369
completion	-9370
PG	-9371
uberfire	-9372
AttributeSet	-9373
▁getSession	-9374
ExecutionRequest	-9375
ALSE	-9376
Addr	-9377
Uuid	-9378
Contributor	-9379
DataProvider	-9380
PayloadMember	-9381
RBA	-9382
EntryImpl	-9383
Stsc	-9384
Medical	-9385
▁10:	-9386
sList	-9387
▁45	-9388
dtable	-9389
InstanceImpl	-9390
CORBA	-9391
CachedClass	-9392
150602.	-9393
OutputReg	-9394
AbstractObject	-9395
▁gen	-9396
itespace	-9397
DataDictionary	-9398
owner	-9399
174	-9400
▁"<	-9401
PrefixList	-9402
Invalidation	-9403
Abort	-9404
DefaultCode	-9405
▁hasExplicit	-9406
▁requestUri	-9407
ExpressionParser	-9408
Cond	-9409
JPQLQuery	-9410
Validating	-9411
ele	-9412
▁imp	-9413
small	-9414
▁23	-9415
StreamRequest	-9416
Derived	-9417
Broadcaster	-9418
Consequence	-9419
FlinkEventProtos	-9420
77.<	-9421
ResultColumn	-9422
Compressed	-9423
Baseline	-9424
formal	-9425
Portfolio	-9426
TasksRequest	-9427
▁createProtocol	-9428
TestNG	-9429
firm	-9430
SCHEMA	-9431
packet	-9432
▁withHas	-9433
sys	-9434
words	-9435
IntProcedure	-9436
▁httpMethodName	-9437
VALID	-9438
umented	-9439
knn	-9440
▁collection	-9441
jected	-9442
PayloadJson	-9443
▁channel	-9444
IndexInput	-9445
▁withPayloadJson	-9446
lision	-9447
avored	-9448
orary	-9449
inja	-9450
VisibilityLabels	-9451
FSheet	-9452
TableState	-9453
$__	-9454
46,	-9455
bigdecimal	-9456
▁getOutput	-9457
StringWriter	-9458
▁singleton	-9459
Identified	-9460
▁task	-9461
lective	-9462
")]	-9463
CTTbl	-9464
IntArrayMap	-9465
ByteArrayMap	-9466
LongArrayMap	-9467
FloatArrayMap	-9468
ShortArrayMap	-9469
DoubleArrayMap	-9470
ProjectRequest	-9471
BooleanArrayMap	-9472
compressors	-9473
DatabaseMapping	-9474
Trim	-9475
Dumper	-9476
Relationship	-9477
$0>]	-9478
32:	-9479
Ujo	-9480
cho	-9481
▁4294967295	-9482
▁di	-9483
▁getEvent	-9484
▁queue	-9485
Blocks	-9486
)>("\\	-9487
▁jjMove	-9488
Exact	-9489
▁inst	-9490
Launcher	-9491
hen	-9492
Requestor	-9493
TextBuffer	-9494
StatementImpl	-9495
CRS	-9496
▁7:	-9497
treewalk	-9498
GenericType	-9499
AbstractByte	-9500
TimeValue	-9501
jndi	-9502
CRIP	-9503
▁fastparse	-9504
Utilization	-9505
46]	-9506
Deprecated	-9507
Documents	-9508
11:	-9509
▁man	-9510
Iss	-9511
▁original	-9512
▁1.0	-9513
Handlers	-9514
Imports	-9515
frame	-9516
None	-9517
OKEN	-9518
Vocabulary	-9519
Ready	-9520
lzma	-9521
bimap	-9522
IndexProto	-9523
DateTimeField	-9524
FieldMetaData	-9525
itle	-9526
declarations	-9527
Chun	-9528
__6	-9529
AbstractChar	-9530
▁nodes	-9531
▁range	-9532
FormatterOptions	-9533
FD	-9534
▁getClassLoader	-9535
Fn	-9536
StatsImpl	-9537
CacheLoader	-9538
==	-9539
CtRole	-9540
Verify	-9541
entities	-9542
_0(	-9543
Tomcat	-9544
Interpol	-9545
AbstractShort	-9546
Conntrack	-9547
Face	-9548
AWSSimpleSystems	-9549
ulated	-9550
ClassPath	-9551
▁isEndElement	-9552
ExceptionMessage	-9553
oip	-9554
▁optional	-9555
▁57	-9556
crs	-9557
ClusterStatus	-9558
ReferenceHashMap	-9559
VAR	-9560
Scenario	-9561
xmlunit	-9562
AmazonRoute	-9563
regionaccess	-9564
editor	-9565
RpcCallback	-9566
TypedLink	-9567
debugging	-9568
sim	-9569
Inverse	-9570
▁ERROR	-9571
SessionContext	-9572
Robot	-9573
quired	-9574
ouse	-9575
CodeEmitter	-9576
AbstractFloat	-9577
Den	-9578
linear	-9579
▁3)	-9580
▁getLocation	-9581
0000\	-9582
DataBuilder	-9583
Externalizer	-9584
FC	-9585
LambdaFunction	-9586
GroupSettings	-9587
STAT	-9588
DefinitionResult	-9589
185	-9590
Used	-9591
▁47	-9592
compression	-9593
UnsafeUtil	-9594
textract	-9595
DBClusterRequest	-9596
ython	-9597
Introspected	-9598
oned	-9599
TableRow	-9600
semaphore	-9601
XAttrProtos	-9602
47]	-9603
Vertx	-9604
Kill	-9605
NodeUtil	-9606
▁sourceStart	-9607
ByteIterable	-9608
tab	-9609
Hasher	-9610
dao	-9611
▁17	-9612
watch	-9613
notifications	-9614
AbstractParser	-9615
Viewer	-9616
Solution	-9617
reporter	-9618
Tasks	-9619
Pg	-9620
Observable	-9621
DoublePredicate	-9622
force	-9623
AutoML	-9624
▁reader	-9625
BranchLabel	-9626
▁removed	-9627
vector	-9628
MethodType	-9629
▁environment	-9630
rupt	-9631
Diagnose	-9632
ListItem	-9633
DiagnoseParser	-9634
001	-9635
188	-9636
AmazonA	-9637
▁mark	-9638
OrderBy	-9639
NormalizedNode	-9640
Constructing	-9641
BundleContext	-9642
Cleanup	-9643
WebApp	-9644
appy	-9645
decider	-9646
QUEST	-9647
Compaction	-9648
AsList	-9649
avoredNodes	-9650
Structural	-9651
mrc	-9652
▁",	-9653
▁valid	-9654
targets	-9655
AdminClient	-9656
ancer	-9657
ResourceShare	-9658
Remapper	-9659
RuleResult	-9660
Tenant	-9661
reater	-9662
▁work	-9663
Warnings	-9664
CharIterable	-9665
Nd	-9666
Ui	-9667
)>(":	-9668
KeyId	-9669
XmlSchema	-9670
ingVisitor	-9671
GetResponse	-9672
AbstractLong	-9673
44]	-9674
WorkingMemory	-9675
CaseInsensitive	-9676
LED	-9677
Visible	-9678
Resubmit	-9679
Ows	-9680
jdbw	-9681
ClassOr	-9682
ShortIterable	-9683
▁kind	-9684
Frequ	-9685
RegionState	-9686
docProps	-9687
▁transform	-9688
▁getDeclared	-9689
cursors	-9690
Collision	-9691
Handshake	-9692
TableFlow	-9693
▁DO	-9694
MXBean	-9695
AbstractInt	-9696
BY	-9697
189	-9698
desc	-9699
crease	-9700
VTypes	-9701
▁comparator	-9702
docPropsVTypes	-9703
VERSION	-9704
Than	-9705
)>(2,	-9706
Mount	-9707
Satis	-9708
▁problemReporter	-9709
LockManager	-9710
VpcEndpoint	-9711
TERN	-9712
48]	-9713
parameters	-9714
=\"	-9715
BC	-9716
facet	-9717
ReportsContext	-9718
▁oshi	-9719
aa	-9720
HashtableOf	-9721
Procedures	-9722
accum	-9723
SearchContext	-9724
realm	-9725
trols	-9726
Merging	-9727
ObjectBuilder	-9728
Let	-9729
Rever	-9730
AsJava	-9731
series	-9732
aria	-9733
leted	-9734
Submission	-9735
PST	-9736
0430\	-9737
Datum	-9738
▁fail	-9739
Locked	-9740
TableSchema	-9741
moshi	-9742
39,	-9743
lexa	-9744
extendedstats	-9745
▁supported	-9746
DD	-9747
mur	-9748
sRequestData	-9749
▁consume	-9750
stc	-9751
7[0]	-9752
clickprojects	-9753
tokens	-9754
Neighbour	-9755
ifference	-9756
InputSource	-9757
RangeVariable	-9758
5\	-9759
aga	-9760
crum	-9761
Analyze	-9762
▁getNumber	-9763
ScmLogger	-9764
FORM	-9765
GroovyMethods	-9766
GetRequest	-9767
▁COM	-9768
SocketChannel	-9769
StateMachine	-9770
Asm	-9771
▁adaptor	-9772
InferenceContext	-9773
ORY	-9774
fib	-9775
79.<	-9776
XmlBeans	-9777
▁descriptor	-9778
urney	-9779
131111.	-9780
RingBuffer	-9781
serial	-9782
flu	-9783
Ir	-9784
AbstractElement	-9785
ModuleDescriptor	-9786
GameServer	-9787
ReturnValue	-9788
ClientConfig	-9789
jsontype	-9790
localstore	-9791
autoscalingplans	-9792
bzip	-9793
TextFormat	-9794
BuiltIn	-9795
iteration	-9796
$24	-9797
▁types	-9798
WriterBased	-9799
Iterate	-9800
packrat	-9801
0012	-9802
Mvc	-9803
49]	-9804
Inlin	-9805
▁3,	-9806
openbsd	-9807
▁isStartElement	-9808
Enhancer	-9809
commission	-9810
respon	-9811
dsig	-9812
ways	-9813
tbd	-9814
ases	-9815
Devices	-9816
StrBuilder	-9817
Deliverability	-9818
sourcemap	-9819
keystone	-9820
SSLEngine	-9821
Removal	-9822
ThreddsMetadata	-9823
scope	-9824
Power	-9825
Enc	-9826
▁children	-9827
▁variable	-9828
IntIterable	-9829
TypeId	-9830
Dfa	-9831
▁getPre	-9832
arest	-9833
DexBacked	-9834
randomized	-9835
▁annotation	-9836
counter	-9837
12:	-9838
▁"")	-9839
ingContext	-9840
▁initialize	-9841
LongIterable	-9842
8\	-9843
probe	-9844
IType	-9845
LatLon	-9846
Positive	-9847
▁rel	-9848
rawler	-9849
just	-9850
jmock	-9851
78.<	-9852
▁getLong	-9853
ScmProvider	-9854
▁getE	-9855
Measure	-9856
jetspeed	-9857
$22	-9858
Journey	-9859
Overrid	-9860
Comprehend	-9861
InstancesResult	-9862
TableStateData	-9863
alled	-9864
SchemaNode	-9865
Title	-9866
ECSSProperty	-9867
ConfigData	-9868
Normalizer	-9869
BindingBuilder	-9870
EscherProperty	-9871
Fa	-9872
Lift	-9873
fsp	-9874
▁tail	-9875
White	-9876
28.	-9877
decor	-9878
TypeKind	-9879
ReservedRange	-9880
186	-9881
▁arguments	-9882
MutableBoolean	-9883
▁document	-9884
ringbuffer	-9885
Canonicalizer	-9886
Distinct	-9887
BEx	-9888
Mesh	-9889
▁getPolicy	-9890
updated	-9891
▁schema	-9892
RgbColorImpl	-9893
IterableOps	-9894
▁database	-9895
LECT	-9896
trl	-9897
Canary	-9898
187	-9899
StringLiteralDfa	-9900
EE	-9901
edits	-9902
IntExp	-9903
dtree	-9904
xm	-9905
DataAccess	-9906
▁INT	-9907
Probe	-9908
▁vi	-9909
▁okio	-9910
FileName	-9911
NodeSet	-9912
Echo	-9913
ANGE	-9914
Concrete	-9915
notify	-9916
BExGrammar	-9917
Perm	-9918
▁getConnection	-9919
Kryo	-9920
anStemmer	-9921
Scheduling	-9922
▁46	-9923
dor	-9924
Startup	-9925
THOD	-9926
181	-9927
ResourceImpl	-9928
AVA	-9929
flogger	-9930
Sip	-9931
Nshc	-9932
Certificat	-9933
ExceptionHandler	-9934
Annot	-9935
rocess	-9936
Inspire	-9937
[3]	-9938
arno	-9939
Self	-9940
currency	-9941
IAL	-9942
REF	-9943
reindex	-9944
KeySetIterator	-9945
layer	-9946
JavaCharStream	-9947
OpsWorks	-9948
codest	-9949
codestarno	-9950
davi	-9951
apping	-9952
▁thread	-9953
Weighted	-9954
Advisor	-9955
60)	-9956
COUN	-9957
4>	-9958
Skin	-9959
rye	-9960
smallrye	-9961
UserStoreManager	-9962
ArchiveEntry	-9963
indexes	-9964
4[1]	-9965
AbstractInsnNode	-9966
ForEach	-9967
▁black	-9968
MT	-9969
XQueryParser	-9970
lexruntime	-9971
Height	-9972
coll	-9973
corelib	-9974
ets	-9975
1_2.	-9976
FlatCollect	-9977
cks	-9978
Users	-9979
citation	-9980
0.	-9981
Relative	-9982
PoliciesRequest	-9983
Reply	-9984
NodeState	-9985
ToDoubleFunction	-9986
typed	-9987
▁A	-9988
Activator	-9989
RequestHandler	-9990
tz	-9991
62)	-9992
59)	-9993
URE	-9994
dependency	-9995
Slide	-9996
TypeEnum	-9997
plain	-9998
Discover	-9999
ToIntFunction	-10000
ChannelResponse	-10001
AndGet	-10002
▁getMin	-10003
LoadBalanc	-10004
30:	-10005
Qualification	-10006
Propagation	-10007
QuickS	-10008
Dummy	-10009
conversion	-10010
Exclude	-10011
ProtocolMessage	-10012
pff	-10013
SOURCE	-10014
QuickSight	-10015
flume	-10016
Associated	-10017
StringEnum	-10018
ClassOrInterface	-10019
RestApi	-10020
Spatial	-10021
NameReference	-10022
forcer	-10023
ReturnType	-10024
wned	-10025
flags	-10026
▁rece	-10027
hardware	-10028
Intent	-10029
arge	-10030
Mu	-10031
Generators	-10032
NodeBuilder	-10033
arrays	-10034
CTMarkup	-10035
yphen	-10036
Temporary	-10037
NIO	-10038
FastDate	-10039
▁segment	-10040
Containers	-10041
▁41	-10042
▁2147483646	-10043
Compatible	-10044
UserResult	-10045
Difference	-10046
UND	-10047
Datagram	-10048
Singular	-10049
WorkItem	-10050
81.<	-10051
▁mis	-10052
urlfetch	-10053
testers	-10054
Strong	-10055
▁have	-10056
Instrument	-10057
ExecutionResult	-10058
Traverser	-10059
Multivalue	-10060
▁so	-10061
Claim	-10062
lections	-10063
ForBusiness	-10064
msg	-10065
ClassMapping	-10066
Repositories	-10067
Plural	-10068
lected	-10069
▁65	-10070
XMLReader	-10071
assertion	-10072
RegistryImpl	-10073
TrialComponent	-10074
▁cmpg	-10075
SolrClient	-10076
GlobalNamespace	-10077
▁reject	-10078
INS	-10079
lexaForBusiness	-10080
Tracing	-10081
RequestImpl	-10082
▁isAttribute	-10083
ny	-10084
LD	-10085
Bindings	-10086
Compatibility	-10087
Neg	-10088
jectory	-10089
FeatureSet	-10090
corejs	-10091
Tier	-10092
_7__	-10093
Detecting	-10094
sigp	-10095
sigpwned	-10096
jsonification	-10097
typer	-10098
fd	-10099
QueueRequest	-10100
197	-10101
RuleCall	-10102
aggregate	-10103
DATE	-10104
▁entity	-10105
adl	-10106
maps	-10107
ernet	-10108
AstNode	-10109
ObjectIterator	-10110
page	-10111
LEAN	-10112
ctrl	-10113
JUnit	-10114
Archiver	-10115
FavoredNodes	-10116
CtTypeReference	-10117
sfc	-10118
▁imple	-10119
hnzon	-10120
▁TRUE	-10121
SeqOps	-10122
cookie	-10123
Deployer	-10124
JsonFactory	-10125
BUG	-10126
ific	-10127
MessageOptions	-10128
Dsl	-10129
Shi	-10130
StringUtil	-10131
StreamFactory	-10132
DATA	-10133
ROUP	-10134
BackupOperation	-10135
Dev	-10136
Factories	-10137
Interrupted	-10138
ids	-10139
198	-10140
HttpMessage	-10141
MessageSend	-10142
rich	-10143
sation	-10144
Indexer	-10145
▁floatValue	-10146
ilor	-10147
HelpMojo	-10148
MapBuilder	-10149
Latest	-10150
eve	-10151
Require	-10152
transp	-10153
TaskQueueFetch	-10154
eclip	-10155
atailor	-10156
mediatailor	-10157
RubyFixnum	-10158
Hot	-10159
SA	-10160
Sequential	-10161
Incremental	-10162
ValueHolder	-10163
ResourceSet	-10164
1$	-10165
eclipses	-10166
eclipsesource	-10167
javac	-10168
atingSystem	-10169
WIT	-10170
▁action	-10171
82.<	-10172
▁jjm	-10173
Adder	-10174
▁jjmatched	-10175
58)	-10176
Else	-10177
MinMax	-10178
StatisticsImpl	-10179
47,	-10180
HttpStatus	-10181
simpletext	-10182
ResourceInfo	-10183
183	-10184
ServerInfo	-10185
80.<	-10186
ErrorMessage	-10187
▁getContent	-10188
MIME	-10189
sFilter	-10190
ParameterValue	-10191
Suggestion	-10192
Outcome	-10193
▁scan	-10194
)>(":")	-10195
ire	-10196
ActionResult	-10197
374	-10198
ApiKey	-10199
Finish	-10200
▁astFactory	-10201
arity	-10202
▁compiler	-10203
FieldData	-10204
Ints	-10205
▁checkState	-10206
Jdk	-10207
optimizers	-10208
Siz	-10209
OneTo	-10210
Confirm	-10211
▁39	-10212
EndPoint	-10213
Crawler	-10214
CharFunction	-10215
191	-10216
AttributeRequest	-10217
AttributeType	-10218
AbstractClient	-10219
nel	-10220
LogRecord	-10221
RAM	-10222
Exports	-10223
fit	-10224
ObjectReference	-10225
prox	-10226
FinTimeout	-10227
_11	-10228
Look	-10229
)>(".")	-10230
ContainerPolicy	-10231
$26	-10232
SQLFunction	-10233
FloatFunction	-10234
WebServerFactory	-10235
BooleanIterable	-10236
Own	-10237
fonts	-10238
dp	-10239
reprocess	-10240
IndexReader	-10241
OpcodeStack	-10242
Generics	-10243
_10	-10244
WALEntry	-10245
Same	-10246
func	-10247
$400(	-10248
abet	-10249
atical	-10250
tunnel	-10251
wrapper	-10252
pay	-10253
ParseContext	-10254
Partitions	-10255
▁meta	-10256
Performance	-10257
193	-10258
LongArray	-10259
▁defin	-10260
ServiceRequest	-10261
204	-10262
ToObjectIterable	-10263
arked	-10264
FlatBatch	-10265
EOF	-10266
GroupBy	-10267
Unix	-10268
collector	-10269
kg	-10270
▁enc	-10271
)>(11	-10272
PopNsh	-10273
PushNsh	-10274
Sent	-10275
▁label	-10276
ResponsePBImpl	-10277
args	-10278
▁prefix	-10279
utation	-10280
MetricData	-10281
streaming	-10282
DescrBuilder	-10283
Overflow	-10284
Too	-10285
ffc	-10286
cludes	-10287
▁LIST	-10288
ADER	-10289
Trusted	-10290
ingJob	-10291
izable	-10292
ainAll	-10293
▁after	-10294
Recorder	-10295
atomiclong	-10296
211	-10297
Metamodel	-10298
LogFactory	-10299
Posix	-10300
Skinny	-10301
sos	-10302
Inf	-10303
Snapshots	-10304
▁postRemove	-10305
IntSet	-10306
10:	-10307
Fuzzy	-10308
FieldValue	-10309
IntIterator	-10310
▁postRemoveHook	-10311
iring	-10312
oll	-10313
ByteFunction	-10314
ShortFunction	-10315
LockMode	-10316
LogLevel	-10317
TagsResult	-10318
▁host	-10319
▁655	-10320
XmlAny	-10321
SecurityManager	-10322
Ords	-10323
TypeData	-10324
MapField	-10325
aw	-10326
PointIn	-10327
omg	-10328
dera	-10329
Duplicate	-10330
Csm	-10331
PresetColor	-10332
▁FALSE	-10333
Logic	-10334
▁ninja	-10335
Xtype	-10336
Expiration	-10337
EventBus	-10338
Settable	-10339
CloudFront	-10340
FilterChain	-10341
ServletRequest	-10342
acl	-10343
ElementType	-10344
▁notNull	-10345
$1$0$	-10346
Inbound	-10347
RegularImmutable	-10348
Stamp	-10349
EntryBuilder	-10350
ResourceProto	-10351
▁oc	-10352
RouteRequest	-10353
cliffc	-10354
loaded	-10355
Preem	-10356
▁getFilters	-10357
metic	-10358
OperatingSystem	-10359
dlm	-10360
EntryListener	-10361
63)	-10362
▁namespace	-10363
ConstraintType	-10364
Transient	-10365
MessageSchema	-10366
SQLBuffer	-10367
392	-10368
Intersect	-10369
CM	-10370
AssessmentRun	-10371
Poll	-10372
urmur	-10373
NetcdfDataset	-10374
gree	-10375
$7:	-10376
GameLift	-10377
▁desired	-10378
(")	-10379
▁ignore	-10380
Increase	-10381
TerminalNode	-10382
SUP	-10383
pending	-10384
IterableFactory	-10385
CLI	-10386
syntax	-10387
SyncClient	-10388
Pom	-10389
AsyncHttpClient	-10390
1)>(	-10391
posts	-10392
$23	-10393
CtClear	-10394
SchemaTypeImpl	-10395
ClassPool	-10396
Cardinality	-10397
Old	-10398
Marshal	-10399
ejb	-10400
URED	-10401
Truncate	-10402
JsonSerializer	-10403
zone	-10404
obser	-10405
HostConfig	-10406
DomConfig	-10407
Os	-10408
▁STRUCT	-10409
ServiceQuota	-10410
182	-10411
ITY	-10412
▁getCluster	-10413
Highlight	-10414
invoker	-10415
StreamExpression	-10416
85.<	-10417
TextField	-10418
nsh	-10419
zing	-10420
subscriber	-10421
RpcAddFlow	-10422
xmlrpc	-10423
Iteration	-10424
transports	-10425
liver	-10426
SchemaBuilder	-10427
unknown	-10428
48,	-10429
ImageRequest	-10430
▁lastIndexOf	-10431
UserServicePb	-10432
195	-10433
)>(3)	-10434
Sites	-10435
StandardContext	-10436
SCRIP	-10437
Subclass	-10438
83.<	-10439
Learner	-10440
BigLists	-10441
RpcRemoveFlow	-10442
datical	-10443
lim	-10444
INST	-10445
SourceCode	-10446
IntValue	-10447
▁sourceEnd	-10448
xmli	-10449
xmlimpl	-10450
ecmascript	-10451
Weld	-10452
replace	-10453
CompletionEngine	-10454
0[7]	-10455
TimeSeries	-10456
TemplateModel	-10457
ween	-10458
CycleDetecting	-10459
swe	-10460
PickleStep	-10461
ConfigRule	-10462
AbstractNode	-10463
etable	-10464
ving	-10465
FeatureCall	-10466
FlushDescriptor	-10467
06/	-10468
FloatIterable	-10469
JSTypeNative	-10470
future	-10471
Organizations	-10472
DoubleIterable	-10473
2)]	-10474
failsafe	-10475
indirection	-10476
AbstractRecord	-10477
Murmur	-10478
ShortPredicate	-10479
Webhook	-10480
GetProperty	-10481
Grow	-10482
decision	-10483
ket	-10484
DataKey	-10485
ASTMatcher	-10486
LambdaPredicate	-10487
▁invalid	-10488
Lag	-10489
▁smile	-10490
EventImpl	-10491
84.<	-10492
TypeFactory	-10493
ResourceLoader	-10494
metric	-10495
olution	-10496
Occ	-10497
VPC	-10498
MAPI	-10499
▁grammar	-10500
StaticPart	-10501
Avg	-10502
201	-10503
BrokerPool	-10504
StackSet	-10505
LongIterator	-10506
AMP	-10507
JRXls	-10508
CompiledCursor	-10509
UBLE	-10510
▁serp	-10511
CTShapeImpl	-10512
timer	-10513
ParserD	-10514
DetectionJob	-10515
deps	-10516
IntObjectHashMap	-10517
▁body	-10518
WithIndex	-10519
experimental	-10520
$$_	-10521
▁command	-10522
▁isSet	-10523
ToType	-10524
CESS	-10525
Frequency	-10526
ExistsException	-10527
▁63	-10528
atable	-10529
Visitable	-10530
MockServer	-10531
crumbs	-10532
Software	-10533
▁getP	-10534
EnumType	-10535
CTHyperlink	-10536
▁-9	-10537
SSION	-10538
experimenter	-10539
9[$	-10540
EventDestination	-10541
Superclass	-10542
BytePredicate	-10543
EntryProto	-10544
AmazonApp	-10545
ClassFileWriter	-10546
▁currentThread	-10547
AssertionStatus	-10548
PRO	-10549
sXMLSCHEMA	-10550
Prec	-10551
▁wa	-10552
Dependent	-10553
CacheConfig	-10554
1312	-10555
GetCluster	-10556
▁9:	-10557
SparkEventProtos	-10558
mos	-10559
coprocessor	-10560
FieldReference	-10561
PrivilegedAction	-10562
40,	-10563
15[	-10564
IJavaElement	-10565
Home	-10566
andThen	-10567
constructor	-10568
Archetype	-10569
dataapi	-10570
redshiftdataapi	-10571
30.	-10572
8[0]	-10573
196	-10574
IdentityPool	-10575
scriptbuilder	-10576
cmd	-10577
ContextManager	-10578
Bavet	-10579
bavet	-10580
SessionManager	-10581
right	-10582
PROPER	-10583
WebXml	-10584
RawType	-10585
MultivaluedMap	-10586
▁MAX	-10587
Fallback	-10588
StepperLike	-10589
TypeName	-10590
etrans	-10591
AliasRequest	-10592
AWSCognito	-10593
CLASS	-10594
KiePMML	-10595
Whitespace	-10596
Sib	-10597
▁shortValue	-10598
▁transaction	-10599
PORT	-10600
inator	-10601
$28	-10602
ines	-10603
ListUser	-10604
Ecies	-10605
▁STRUCTURED	-10606
spot	-10607
ipt	-10608
FileStat	-10609
etransfer	-10610
statetransfer	-10611
Scor	-10612
ervation	-10613
ffective	-10614
FloatPredicate	-10615
AndSet	-10616
mch	-10617
untz	-10618
jpo	-10619
jpountz	-10620
ByteIterator	-10621
Mutate	-10622
▁\"	-10623
adapted	-10624
Lens	-10625
frames	-10626
RaftGroup	-10627
bindings	-10628
__2	-10629
johnzon	-10630
▁ad	-10631
ModelRequest	-10632
SSFSheet	-10633
andbox	-10634
YangModule	-10635
107.	-10636
echan	-10637
dtanalysis	-10638
Raise	-10639
▁getProject	-10640
graphic	-10641
EB	-10642
BaseImpl	-10643
WeakHashMap	-10644
DEL	-10645
promise	-10646
VE	-10647
FormatterBuilder	-10648
tn	-10649
CommonTree	-10650
Grad	-10651
CTGroupImpl	-10652
StorageGateway	-10653
▁bound	-10654
pu	-10655
Reifier	-10656
NotEmpty	-10657
▁extract	-10658
DoubleMaps	-10659
▁18	-10660
Feedback	-10661
TestSuite	-10662
▁parser	-10663
Wmf	-10664
▁multi	-10665
ProxyFactory	-10666
208	-10667
WildcardBinding	-10668
▁forName	-10669
▁ID	-10670
TreeWalker	-10671
209	-10672
JDBCStore	-10673
unication	-10674
CommentParser	-10675
OptionBuilder	-10676
raket	-10677
observer	-10678
paymch	-10679
jsonunit	-10680
javacrumbs	-10681
Serial	-10682
IBinary	-10683
DeclaredType	-10684
clear	-10685
OOLEAN	-10686
59]	-10687
▁mv	-10688
57]	-10689
HttpConnection	-10690
__10	-10691
Bill	-10692
207	-10693
LongMaps	-10694
iling	-10695
hierarchy	-10696
Preference	-10697
LoadBalancing	-10698
FileStatus	-10699
ResourcesRequest	-10700
Backend	-10701
Cloneable	-10702
)>(10)	-10703
UnifiedMap	-10704
Low	-10705
Remaining	-10706
▁available	-10707
eviction	-10708
ithmetic	-10709
▁INTE	-10710
BasePb	-10711
ApiBasePb	-10712
rdsdata	-10713
paces	-10714
Could	-10715
histogram	-10716
CaseValue	-10717
trig	-10718
unning	-10719
VersionInfo	-10720
88.<	-10721
criterion	-10722
Latency	-10723
ElementKind	-10724
feed	-10725
Picture	-10726
Cmp	-10727
Commands	-10728
Sampling	-10729
Nearest	-10730
ynchronous	-10731
▁setMessage	-10732
lueprint	-10733
ADD	-10734
Transcription	-10735
td	-10736
356.	-10737
Phrase	-10738
ListValue	-10739
Cong	-10740
Computation	-10741
ToLongFunction	-10742
38\	-10743
PackageImpl	-10744
Conduit	-10745
smith	-10746
Responses	-10747
▁jersey	-10748
FieldAccess	-10749
▁isInitialized	-10750
lover	-10751
Chunked	-10752
recordstore	-10753
▁shutdown	-10754
JGit	-10755
mask	-10756
OSGi	-10757
▁getCache	-10758
tow	-10759
Ebs	-10760
IntMaps	-10761
ByteMaps	-10762
CharMaps	-10763
FloatMaps	-10764
ShortMaps	-10765
COL	-10766
Predictor	-10767
Wizard	-10768
RequestPBImpl	-10769
concret	-10770
Combiner	-10771
MathTransform	-10772
61)	-10773
esyntax	-10774
esyntaxmodel	-10775
▁readUnsigned	-10776
EndList	-10777
OpenFile	-10778
dgf	-10779
Party	-10780
Timers	-10781
StackRequest	-10782
StartList	-10783
ipEntry	-10784
Google	-10785
EnabledRequest	-10786
XbaseFormatter	-10787
original	-10788
▁getParameters	-10789
Shards	-10790
reifier	-10791
Simulator	-10792
▁include	-10793
NF	-10794
SimpleConfig	-10795
AppRequest	-10796
OutputImpl	-10797
Consistency	-10798
AWSOpsWorks	-10799
ims	-10800
86.<	-10801
JobStatus	-10802
RaiseException	-10803
InstanceProfile	-10804
▁getDocument	-10805
ServiceTracker	-10806
▁getAttributes	-10807
17[	-10808
205	-10809
Known	-10810
CTComment	-10811
40\	-10812
ReadContext	-10813
LocalGateway	-10814
Farm	-10815
▁LONG	-10816
marketplace	-10817
Nil	-10818
▁getVpc	-10819
ByteChannel	-10820
abi	-10821
SimpleDateFormat	-10822
ReadQuery	-10823
atio	-10824
0[8]	-10825
▁declaration	-10826
TcpIp	-10827
observation	-10828
RegexPattern	-10829
ArrayBuilder	-10830
asc	-10831
INode	-10832
SnapshotsRequest	-10833
Targets	-10834
rx	-10835
▁metadata	-10836
ByteSource	-10837
dd	-10838
amx	-10839
1406	-10840
publish	-10841
increment	-10842
metamx	-10843
▁remaining	-10844
NullAnnotation	-10845
label	-10846
GssParser	-10847
HttpSession	-10848
invokebinder	-10849
erics	-10850
ImmutableBoolean	-10851
interpreter	-10852
ATED	-10853
AWSApp	-10854
ITreeAppendable	-10855
rg	-10856
▁RO	-10857
fact	-10858
liable	-10859
ObsDataset	-10860
Reflector	-10861
FieldSerializer	-10862
reporting	-10863
Indic	-10864
Completer	-10865
Paged	-10866
▁INTEGER	-10867
XMLSchema	-10868
Concurrency	-10869
item	-10870
formed	-10871
WeakReference	-10872
NamespaceRequest	-10873
Preemption	-10874
CTF	-10875
▁items	-10876
TI	-10877
TraceAdmin	-10878
▁begin	-10879
AccountRequest	-10880
Nanos	-10881
Show	-10882
KNO	-10883
wkt	-10884
ValueSource	-10885
13:	-10886
▁fire	-10887
▁pool	-10888
AmazonQuickSight	-10889
SegmentTermsEnum	-10890
Ded	-10891
BKD	-10892
227	-10893
ClassTag	-10894
ResourceNotFound	-10895
Restart	-10896
▁getImage	-10897
▁getRule	-10898
pag	-10899
EnumMap	-10900
ipp	-10901
▁4)	-10902
203	-10903
▁annotations	-10904
jcabi	-10905
ExpiryPolicy	-10906
40]	-10907
orth	-10908
TypedScope	-10909
206	-10910
)>(4)	-10911
MapData	-10912
StmtContext	-10913
stor	-10914
gable	-10915
JClassType	-10916
IntConsumer	-10917
NodeEngineImpl	-10918
▁augmentations	-10919
▁getX	-10920
AllocateId	-10921
248	-10922
▁getMetaClass	-10923
▁matcher	-10924
Automation	-10925
XmlAnySimpleType	-10926
ATCH	-10927
VariableResolver	-10928
GetResource	-10929
DiscoveryNode	-10930
▁declaringClass	-10931
UST	-10932
RESS	-10933
▁-1]	-10934
AbstractData	-10935
QueryRequest	-10936
Beta	-10937
MemberImpl	-10938
accesslayer	-10939
FilteredEntry	-10940
fibmanager	-10941
altdev	-10942
MavenXpp	-10943
ctrlaltdev	-10944
▁addAttribute	-10945
▁getResourceArn	-10946
devices	-10947
SSLContext	-10948
TypeInference	-10949
MIN	-10950
kop	-10951
VersionRange	-10952
sen	-10953
64)	-10954
staxutils	-10955
BI	-10956
uted	-10957
▁proto	-10958
bytebuf	-10959
▁actual	-10960
bruk	-10961
OFFSET	-10962
kopitu	-10963
kopitubruk	-10964
TrafficPolicy	-10965
ColumnType	-10966
IProject	-10967
▁getLine	-10968
datasources	-10969
MultiRow	-10970
ADB	-10971
Varint	-10972
SequenceFile	-10973
plac	-10974
comments	-10975
DateRange	-10976
CollectionImpl	-10977
Medium	-10978
AbsolutePath	-10979
bine	-10980
splitting	-10981
FieldWriter	-10982
bre	-10983
▁required	-10984
METHOD	-10985
javaparsermodel	-10986
ClientImpl	-10987
67)	-10988
65)	-10989
VaadinIcon	-10990
FieldStrategy	-10991
▁getTable	-10992
▁"[	-10993
Transformed	-10994
Thrott	-10995
Unmarshal	-10996
GssParserCC	-10997
ClassNotFound	-10998
_1__3	-10999
ericsson	-11000
▁iter	-11001
GetData	-11002
asti	-11003
50.	-11004
Lease	-11005
▁owner	-11006
----	-11007
▁NOT	-11008
▁closed	-11009
utures	-11010
▁getPort	-11011
▁getOr	-11012
$2>	-11013
InProgress	-11014
▁address	-11015
2/	-11016
Packaging	-11017
Actual	-11018
▁DEBUG	-11019
41]	-11020
Marked	-11021
outputTail	-11022
Tika	-11023
astiCache	-11024
GeneratorAdapter	-11025
ElastiCache	-11026
131028.	-11027
RowImpl	-11028
TypeLiteral	-11029
HttpPost	-11030
▁getRoot	-11031
$25	-11032
KNOWN	-11033
dataframe	-11034
PingProtos	-11035
Closing	-11036
IndexMetadata	-11037
DatabaseManager	-11038
▁ab	-11039
87.<	-11040
clickdevices	-11041
68)	-11042
▁4,	-11043
MimeType	-11044
vocation	-11045
CacheProxy	-11046
Plastic	-11047
Keyset	-11048
Arithmetic	-11049
OpenAPI	-11050
LocalDateTime	-11051
jodah	-11052
SocketFactory	-11053
SYS	-11054
▁getEndpoint	-11055
ModuleContainer	-11056
UD	-11057
StateChange	-11058
ContextHandler	-11059
BidiMap	-11060
echanism	-11061
LOAT	-11062
▁127	-11063
Bandwidth	-11064
AmazonRedshift	-11065
Snowball	-11066
FileChannel	-11067
LevelEncryption	-11068
NamespaceContext	-11069
Oc	-11070
qom	-11071
RepeatedField	-11072
Stand	-11073
Subtree	-11074
BlockDevice	-11075
3[2]	-11076
MIT	-11077
Using	-11078
Cr	-11079
PLE	-11080
MBeanServer	-11081
RichFunction	-11082
DomNode	-11083
cmdline	-11084
Partner	-11085
commonmark	-11086
UpdateGroup	-11087
Decryp	-11088
ificant	-11089
▁timestamp	-11090
NxActionLearn	-11091
secur	-11092
▁getTemplate	-11093
Caption	-11094
IAM	-11095
▁order	-11096
DescribeCluster	-11097
Spo	-11098
Utilities	-11099
2006/	-11100
Unsorted	-11101
▁writeTo	-11102
IfAbsentPut	-11103
ords	-11104
ByteOrder	-11105
▁67	-11106
Instantiation	-11107
▁gate	-11108
stern	-11109
170120	-11110
StatusCode	-11111
▁byteValue	-11112
RecordReader	-11113
ntl	-11114
Meet	-11115
ilarity	-11116
▁serialize	-11117
Assembly	-11118
pair	-11119
NxActionRegLoad	-11120
ArrayDecoder	-11121
install	-11122
AbstractList	-11123
▁deserializ	-11124
0[9]	-11125
▁over	-11126
FlowExecution	-11127
logspot	-11128
azz	-11129
basic	-11130
spider	-11131
__11	-11132
AsString	-11133
$8:	-11134
89.<	-11135
▁getCode	-11136
$18	-11137
Alpha	-11138
16:	-11139
66)	-11140
Macro	-11141
WeakKey	-11142
▁than	-11143
spans	-11144
Routes	-11145
ConstructorCall	-11146
▁hasMoreElements	-11147
Retrying	-11148
lem	-11149
EA	-11150
Uif	-11151
Shar	-11152
▁evalu	-11153
JSONParser	-11154
LS	-11155
formallang	-11156
3_	-11157
Shapetype	-11158
▁LT	-11159
Hostname	-11160
58]	-11161
callback	-11162
vari	-11163
archive	-11164
Alphabet	-11165
▁row	-11166
StoreFile	-11167
_0_>	-11168
▁setParameter	-11169
Hint	-11170
GetService	-11171
RegionStateData	-11172
vie	-11173
▁job	-11174
ServiceContext	-11175
BooleanFunction	-11176
Jrt	-11177
Setup	-11178
Swagger	-11179
▁"_	-11180
ServiceManager	-11181
▁getAll	-11182
Nullable	-11183
cker	-11184
▁xsbti	-11185
▁getOwner	-11186
▁getLastModified	-11187
Isol	-11188
NumberType	-11189
bid	-11190
1503	-11191
loading	-11192
▁getExpression	-11193
45,	-11194
asource	-11195
DataContainer	-11196
Internet	-11197
InvDataset	-11198
IntArrayList	-11199
64]	-11200
Best	-11201
StructureData	-11202
TreeLogger	-11203
svm	-11204
Styles	-11205
Outbound	-11206
▁symbol	-11207
HttpParser	-11208
MW	-11209
SchemaRequest	-11210
▁global	-11211
RectImpl	-11212
CTShapetype	-11213
RequestProcessor	-11214
Combo	-11215
BulkLoadHFile	-11216
Gcm	-11217
Ejb	-11218
Segmented	-11219
0[26	-11220
AmazonCode	-11221
versioning	-11222
ATNSimulator	-11223
▁readObject	-11224
▁scanner	-11225
SUB	-11226
Means	-11227
Encrypted	-11228
91.<	-11229
ICommons	-11230
/")	-11231
Subscribe	-11232
▁ddf	-11233
READ	-11234
RubyParser	-11235
tokenattributes	-11236
ANTLRLexer	-11237
Tex	-11238
anna	-11239
Occurr	-11240
Polling	-11241
▁charValue	-11242
typedarrays	-11243
kStemmer	-11244
TraceAdminPB	-11245
lap	-11246
Flatt	-11247
▁bean	-11248
ComponentBuilder	-11249
Mixin	-11250
ulk	-11251
means	-11252
▁pending	-11253
▁getCause	-11254
staticClassInfo	-11255
Letter	-11256
generate	-11257
CallbackHandler	-11258
HazelcastClient	-11259
deliver	-11260
Deleted	-11261
▁setType	-11262
EnumDescriptor	-11263
NxActionRegMove	-11264
allow	-11265
voice	-11266
Iso	-11267
lying	-11268
cachelistener	-11269
16[	-11270
Reducer	-11271
Asynchronous	-11272
Unassign	-11273
▁AL	-11274
securitytoken	-11275
▁sum	-11276
reat	-11277
170120.	-11278
JspParser	-11279
230	-11280
BuildBatch	-11281
typeinference	-11282
BD	-11283
▁SH	-11284
IPSet	-11285
Sentinel	-11286
IndexWriter	-11287
oted	-11288
regexp	-11289
PS	-11290
Matches	-11291
FileCache	-11292
AsFunction	-11293
sem	-11294
▁49	-11295
Sibling	-11296
$27	-11297
ATTR	-11298
Miti	-11299
SynchronizedChar	-11300
use	-11301
Swing	-11302
18\	-11303
▁-3	-11304
agent	-11305
TypeType	-11306
EventJournal	-11307
OutputFormat	-11308
NullValue	-11309
AbstractRule	-11310
Quartz	-11311
SMS	-11312
2()>()	-11313
▁getPage	-11314
FR	-11315
bing	-11316
MapKey	-11317
15:	-11318
41,	-11319
HibernateOrm	-11320
esch	-11321
Iterables	-11322
PatternDSL	-11323
ChangeEvent	-11324
▁defaultInstance	-11325
JSTypeRegistry	-11326
Signer	-11327
PointStreamProto	-11328
ClientRequest	-11329
Dimensions	-11330
Mitigation	-11331
1[2]	-11332
RpcConnection	-11333
checked	-11334
BE	-11335
UMBER	-11336
SafeHeap	-11337
STText	-11338
▁immutable	-11339
JImmutable	-11340
▁getDomain	-11341
GetQueue	-11342
compati	-11343
HumanLoop	-11344
Diagnostics	-11345
Classic	-11346
InfoCmp	-11347
Meeting	-11348
9\	-11349
Rele	-11350
menter	-11351
ParseResult	-11352
)>(-1)	-11353
delete	-11354
arc	-11355
mak	-11356
Large	-11357
ances	-11358
ChartImpl	-11359
288	-11360
AesCtrHmac	-11361
▁setAttribute	-11362
icated	-11363
2)>(	-11364
Egress	-11365
ortest	-11366
Firehose	-11367
AWSGreengrass	-11368
states	-11369
fermenter	-11370
KMeans	-11371
14:	-11372
LL	-11373
Jpa	-11374
Preview	-11375
BackupVault	-11376
▁parsePartial	-11377
CTSheet	-11378
Fetcher	-11379
▁notify	-11380
EventHandler	-11381
bp	-11382
Operators	-11383
▁change	-11384
JobStore	-11385
mda	-11386
jdbcjob	-11387
jdbcjobstore	-11388
0[10]	-11389
)>("",	-11390
InstanceResult	-11391
Previous	-11392
ARD	-11393
0627	-11394
▁pri	-11395
Matchmak	-11396
LockFactory	-11397
nexth	-11398
TextCommand	-11399
202	-11400
ListTable	-11401
NxActionResubmit	-11402
Writeable	-11403
CTShapetypeImpl	-11404
_1_	-11405
BinaryWriter	-11406
AmazonGameLift	-11407
fieldAccessor	-11408
▁concat	-11409
eq	-11410
threadpool	-11411
EnumOptions	-11412
StackMapFrame	-11413
JsDoc	-11414
▁snapshot	-11415
TypeMirror	-11416
BytesPair	-11417
kmeans	-11418
▁getPrefix	-11419
DC	-11420
non	-11421
Neighbor	-11422
LastError	-11423
EmailServiceV	-11424
42]	-11425
▁extensions	-11426
disruptor	-11427
44,	-11428
▁38	-11429
TABLE	-11430
POJO	-11431
geomgraph	-11432
inmemory	-11433
6[$	-11434
lmax	-11435
▁provi	-11436
ObjectIntHashMap	-11437
▁UTF	-11438
Aggregated	-11439
outposts	-11440
InstanceDetails	-11441
TOKEN	-11442
160321.	-11443
▁getQuery	-11444
MessageOrBuilder	-11445
ClassGenerator	-11446
93.<	-11447
43]	-11448
SetMultimap	-11449
1")	-11450
sms	-11451
Until	-11452
Patterns	-11453
Terminate	-11454
alone	-11455
LoggerContext	-11456
ParameterGroup	-11457
Execut	-11458
VpcPeering	-11459
tip	-11460
Satisfy	-11461
18[	-11462
▁writeObject	-11463
dsa	-11464
▁only	-11465
FieldName	-11466
CodeIterator	-11467
3)]	-11468
ENCE	-11469
ResourceMethod	-11470
213	-11471
Gran	-11472
▁tab	-11473
DeviceFarm	-11474
QNAME	-11475
225	-11476
Summaries	-11477
mediation	-11478
▁getSize	-11479
▁modifiers	-11480
CodeHelpers	-11481
LIST	-11482
Remediation	-11483
MVEL	-11484
LocalDeclaration	-11485
PointInTime	-11486
legacy	-11487
dmot	-11488
Limits	-11489
RaftKV	-11490
dmoten	-11491
150330.	-11492
davidmoten	-11493
alis	-11494
Adjust	-11495
▁hashValid	-11496
126.<	-11497
Substitution	-11498
HsqlException	-11499
identitymaps	-11500
parset	-11501
42,	-11502
Without	-11503
TopLevel	-11504
SetterHelper	-11505
▁url	-11506
bidimap	-11507
EmailIdentity	-11508
Nex	-11509
ebgp	-11510
environment	-11511
▁getRuntime	-11512
90.<	-11513
35\	-11514
Assembler	-11515
rows	-11516
teral	-11517
Alternative	-11518
XPathException	-11519
repositories	-11520
ACTION	-11521
sitions	-11522
SourceType	-11523
MutableDefault	-11524
rj	-11525
▁commit	-11526
ClassDef	-11527
StatisticsData	-11528
SSAGE	-11529
braket	-11530
Mal	-11531
)[5]	-11532
Pi	-11533
▁dirPath	-11534
Receipt	-11535
▁flags	-11536
7.	-11537
ANG	-11538
SourceReference	-11539
BooleanValuesMap	-11540
Tagging	-11541
CEP	-11542
ListEntry	-11543
ServiceFactory	-11544
ArrayStack	-11545
mander	-11546
Encryptor	-11547
▁CONT	-11548
4\	-11549
EntityType	-11550
247	-11551
ClientSession	-11552
ExpressionImpl	-11553
BooleanPredicate	-11554
anel	-11555
Dedicated	-11556
oke	-11557
PING	-11558
$500(	-11559
Lines	-11560
Infos	-11561
Kt	-11562
yclic	-11563
Brush	-11564
eo	-11565
Review	-11566
eschke	-11567
txtmark	-11568
rjeschke	-11569
ListBuilder	-11570
▁params	-11571
▁project	-11572
Continuous	-11573
DescribeReserved	-11574
▁NAMESPACE	-11575
DocumentType	-11576
Offline	-11577
onymous	-11578
Mechanism	-11579
RubySymbol	-11580
Mouse	-11581
RequestLog	-11582
Declarations	-11583
tac	-11584
ITION	-11585
▁populate	-11586
CTTc	-11587
AnnotationMirror	-11588
0[27	-11589
Stroke	-11590
tison	-11591
CTRectImpl	-11592
Macie	-11593
Consistent	-11594
SerializerDef	-11595
UpdateRequest	-11596
Anonymous	-11597
EnabledResponse	-11598
YangConstruct	-11599
SessionRequest	-11600
0_>]	-11601
Resize	-11602
Descending	-11603
ServiceLocator	-11604
simpledb	-11605
Descriptions	-11606
SeparateKVByte	-11607
disk	-11608
▁custom	-11609
StateNode	-11610
$20	-11611
Navigation	-11612
MethodInvocation	-11613
SHA	-11614
sfor	-11615
ObjectRequest	-11616
reprocessor	-11617
Decode	-11618
RuleGroup	-11619
▁page	-11620
ninja	-11621
ShardId	-11622
guous	-11623
)>(46)	-11624
StartTime	-11625
▁getProperties	-11626
sforce	-11627
Picker	-11628
▁image	-11629
CTVector	-11630
220	-11631
BitsToFloat	-11632
capabilities	-11633
$9:	-11634
LanguageCode	-11635
iser	-11636
Hardware	-11637
TableImpl	-11638
▁getShort	-11639
EngineImpl	-11640
FieldAccessors	-11641
apicurio	-11642
TypedProperties	-11643
mob	-11644
InputLocation	-11645
▁seek	-11646
last	-11647
▁numberOf	-11648
▁intBitsToFloat	-11649
▁AWS	-11650
BitsToDouble	-11651
Indicator	-11652
Continue	-11653
▁generated	-11654
calc	-11655
▁CHAR	-11656
istance	-11657
ReadLock	-11658
OutputBuffer	-11659
Quan	-11660
Redirect	-11661
AttributeImpl	-11662
AxisOperation	-11663
duration	-11664
subphase	-11665
Tap	-11666
Computer	-11667
enums	-11668
QueryParser	-11669
aix	-11670
▁signature	-11671
planation	-11672
jfree	-11673
TypeHelper	-11674
going	-11675
DOMDataTree	-11676
▁sorted	-11677
QuorumPeer	-11678
nodefeature	-11679
0[11]	-11680
SourceFile	-11681
IdGenerator	-11682
StoragePolicy	-11683
9[0]	-11684
scheduling	-11685
CompositeIndex	-11686
korm	-11687
▁256	-11688
▁setUnfinished	-11689
ldap	-11690
Textifier	-11691
unicast	-11692
PathElement	-11693
Automatic	-11694
▁rehash	-11695
sxt	-11696
sxtanna	-11697
SourceContext	-11698
Trailer	-11699
MachineLearning	-11700
SynchronizedLong	-11701
ValueEntry	-11702
ComboBox	-11703
▁parseDelimited	-11704
SynchronizedByte	-11705
Triple	-11706
▁setChar	-11707
repres	-11708
LongValuesMap	-11709
DoubleValuesMap	-11710
RI	-11711
ObjSet	-11712
omy	-11713
JsonReadContext	-11714
ather	-11715
▁enclosing	-11716
▁getCreationTime	-11717
NodeMap	-11718
▁getIn	-11719
Loggable	-11720
jettison	-11721
TLS	-11722
BTreeMap	-11723
LongArrayList	-11724
Jam	-11725
XmlWriter	-11726
ServiceOptions	-11727
uccessful	-11728
▁setMax	-11729
ASTArray	-11730
PartitionReplica	-11731
160325.	-11732
DocId	-11733
coord	-11734
CodePrinter	-11735
JavaModelManager	-11736
▁I	-11737
AIN	-11738
Proof	-11739
MAX	-11740
tactic	-11741
ategies	-11742
▁while	-11743
Outputs	-11744
▁resolvedType	-11745
TON	-11746
▁already	-11747
EciesAead	-11748
TrueFalse	-11749
_8__	-11750
datasource	-11751
ManyTo	-11752
ATNConfig	-11753
ListIterable	-11754
AWSS	-11755
Hy	-11756
Ok	-11757
Decommission	-11758
JSONObject	-11759
Conversation	-11760
SynchronizedInt	-11761
UnmodifiableChar	-11762
$1")	-11763
StepMatch	-11764
Routine	-11765
XY	-11766
Futures	-11767
JsonDeserializer	-11768
▁endpoint	-11769
IntValuesMap	-11770
ByteValuesMap	-11771
CharValuesMap	-11772
FloatValuesMap	-11773
ShortValuesMap	-11774
Synchronization	-11775
95.<	-11776
215	-11777
▁newLine	-11778
▁getPackage	-11779
bur	-11780
MainFrame	-11781
BasicValue	-11782
SpanReceiver	-11783
CreateDeployment	-11784
CTION	-11785
RecursiveRule	-11786
ConstraintStream	-11787
tlement	-11788
RubyLexer	-11789
effective	-11790
TypesRequest	-11791
Asci	-11792
▁capacity	-11793
Touch	-11794
MailStub	-11795
Identifiers	-11796
BlockingDeque	-11797
AbstractLogger	-11798
0012\	-11799
▁getModel	-11800
ObjHash	-11801
EntryPoint	-11802
Joins	-11803
▁rew	-11804
▁cancel	-11805
218	-11806
AbstractIterator	-11807
ScanRequest	-11808
iting	-11809
onomy	-11810
MojoExecution	-11811
takari	-11812
CTLine	-11813
Added	-11814
mapstore	-11815
ForceBuilder	-11816
ConnectionResult	-11817
NxActionPopNsh	-11818
NxActionPushNsh	-11819
▁makeExtensions	-11820
Spel	-11821
▁getTask	-11822
evaluators	-11823
START	-11824
greekStemmer	-11825
Cf	-11826
ActionsRequest	-11827
SAsyncClient	-11828
esolution	-11829
72)	-11830
ByName	-11831
parent	-11832
▁putShort	-11833
DynamicConfig	-11834
ConstantAction	-11835
250	-11836
Arns	-11837
ongo	-11838
ither	-11839
RestRequest	-11840
ElementImp	-11841
RES	-11842
▁getDeclar	-11843
0[29	-11844
subtle	-11845
▁handler	-11846
)>(0	-11847
filterchain	-11848
StartContainer	-11849
▁character	-11850
typeresolution	-11851
smsvoice	-11852
AnnotatedMethod	-11853
pinpointsmsvoice	-11854
Ascii	-11855
Major	-11856
$000()>()	-11857
MapConfig	-11858
LinkOption	-11859
69)	-11860
PROPERTY	-11861
RecoveryPoint	-11862
/200	-11863
InputDevice	-11864
FullyQualified	-11865
ernetes	-11866
ubernetes	-11867
StorageType	-11868
259	-11869
specimpl	-11870
NotifFlows	-11871
colllib	-11872
DatabaseQuery	-11873
bk	-11874
ayes	-11875
WildcardType	-11876
Construction	-11877
OffsetCommit	-11878
Arc	-11879
HttpEntity	-11880
DOMFile	-11881
Gwt	-11882
factor	-11883
VersionException	-11884
kex	-11885
LangInfo	-11886
ResolvableType	-11887
▁propertyAliases	-11888
Quote	-11889
Online	-11890
marketplac	-11891
▁fetch	-11892
Dataflow	-11893
AddRequest	-11894
OPTION	-11895
Changes	-11896
rier	-11897
221	-11898
martTag	-11899
ValuesIterator	-11900
MetricName	-11901
Participant	-11902
ARY	-11903
Spdy	-11904
EndpointConfig	-11905
VpcLink	-11906
JavaProxy	-11907
SavingsPlan	-11908
Explanation	-11909
picker	-11910
AbstractFuture	-11911
ippet	-11912
ScheduledFuture	-11913
Enclosing	-11914
hc	-11915
▁getDestination	-11916
only	-11917
SourceMap	-11918
LOB	-11919
219	-11920
33:	-11921
▁typeLoader	-11922
lick	-11923
PassFactory	-11924
cardinality	-11925
Orderable	-11926
GatewayRequest	-11927
BaseTypeBinding	-11928
$10:	-11929
xsite	-11930
MetadataBuilder	-11931
▁jjtree	-11932
ConstraintProto	-11933
sTo	-11934
HER	-11935
UserAuth	-11936
Wrapping	-11937
ObjectNode	-11938
JRProperties	-11939
DBDictionary	-11940
DataSync	-11941
0(	-11942
cbor	-11943
SharedCache	-11944
getIfAbsentPut	-11945
Declarator	-11946
CachePolicy	-11947
ServiceCall	-11948
DescribeInstance	-11949
Dense	-11950
ShardRouting	-11951
$34	-11952
views	-11953
EvaluationResult	-11954
ABLED	-11955
257	-11956
master	-11957
ModelResult	-11958
CAP	-11959
▁red	-11960
DirectMapping	-11961
lf	-11962
CTEffect	-11963
Suggester	-11964
DH	-11965
212	-11966
Batched	-11967
Reject	-11968
mpot	-11969
▁prepare	-11970
CA	-11971
poch	-11972
214	-11973
Dispatch	-11974
CompletionStage	-11975
▁missing	-11976
DoubleSortedMap	-11977
Inliner	-11978
Estimator	-11979
Hits	-11980
$29	-11981
ConfigMarshaller	-11982
InsnList	-11983
GenericRefresh	-11984
Lnet	-11985
pt	-11986
JarFile	-11987
moj	-11988
jzlib	-11989
ScoreHolder	-11990
Ecmascript	-11991
cy	-11992
15030	-11993
RowFilter	-11994
LINE	-11995
217	-11996
▁PAT	-11997
TermsWriter	-11998
▁70	-11999
delivery	-12000
▁isStatic	-12001
idl	-12002
▁timeout	-12003
UpperCase	-12004
Identification	-12005
Playback	-12006
Intersection	-12007
ProtocolSupport	-12008
Outline	-12009
SearchResult	-12010
ExpState	-12011
Searcher	-12012
▁fromValue	-12013
has	-12014
JavaToken	-12015
StrictParser	-12016
CellProtos	-12017
▁getAbsolutePath	-12018
GetQuota	-12019
Replicate	-12020
microprofile	-12021
contains	-12022
ProviderImpl	-12023
BodyParser	-12024
ServerLoad	-12025
Exclusive	-12026
▁addChild	-12027
learners	-12028
DataHolder	-12029
jscover	-12030
AmazonConfig	-12031
ContainerImpl	-12032
Chained	-12033
mobile	-12034
Reencryption	-12035
IndexOutput	-12036
TemplateOptions	-12037
EnumValueOptions	-12038
pmn	-12039
Piccolo	-12040
Durable	-12041
Escaper	-12042
ImageBuilder	-12043
demos	-12044
ingType	-12045
NM	-12046
CBOR	-12047
SrcNx	-12048
Price	-12049
fromXContent	-12050
AmazonConnect	-12051
ObjectSortedMap	-12052
vibur	-12053
STTrueFalse	-12054
TermVectors	-12055
SeparateKVChar	-12056
ScheduleRequest	-12057
SeparateKVShort	-12058
Aj	-12059
43,	-12060
Reflect	-12061
AccessLogValve	-12062
Tools	-12063
login	-12064
jac	-12065
TableModel	-12066
IntSortedMap	-12067
ByteSortedMap	-12068
CharSortedMap	-12069
LongSortedMap	-12070
DynamoDBMapper	-12071
FloatSortedMap	-12072
ShortSortedMap	-12073
BooleanSortedMap	-12074
iterators	-12075
SeparateKVInt	-12076
SeparateKVLong	-12077
Nep	-12078
GetSpaceQuota	-12079
JGitText	-12080
jni	-12081
▁xml	-12082
AWSWAFRegional	-12083
save	-12084
Ordin	-12085
webresources	-12086
92.<	-12087
DataFrame	-12088
ABEL	-12089
UBLIC	-12090
DataBuffer	-12091
216	-12092
▁provider	-12093
EventsRequest	-12094
agi	-12095
JavaProject	-12096
Suppression	-12097
▁ind	-12098
▁escape	-12099
BatchDelete	-12100
DataContext	-12101
Syntactic	-12102
BigArrays	-12103
xmlconfig	-12104
RestoreSnapshot	-12105
CTHyperlinkImpl	-12106
0[28	-12107
Cach	-12108
ItemRequest	-12109
AwsSecurity	-12110
IModule	-12111
SubnetGroup	-12112
XStream	-12113
_2_	-12114
▁NONE	-12115
Blip	-12116
Ster	-12117
erved	-12118
GetJob	-12119
CompletionParser	-12120
ANT	-12121
bulk	-12122
Forwarded	-12123
ObjectLocator	-12124
BooleanBigList	-12125
ebs	-12126
0018\	-12127
ObjectMapping	-12128
NxActionCtClear	-12129
▁model	-12130
▁headers	-12131
VP	-12132
▁clean	-12133
AWSCodeCommit	-12134
Clustered	-12135
selectors	-12136
EncryptionKey	-12137
▁returnAST	-12138
CN	-12139
PH	-12140
AnnotatedElement	-12141
dns	-12142
bpmn	-12143
ptg	-12144
222	-12145
aemon	-12146
Attached	-12147
renderers	-12148
FromContext	-12149
quad	-12150
fluence	-12151
AccessPoint	-12152
Swap	-12153
InputBuffer	-12154
ServiceLoader	-12155
bkd	-12156
Hour	-12157
DSLMap	-12158
GROUP	-12159
14050	-12160
RpcUpdateGroup	-12161
Formal	-12162
SecondaryIndex	-12163
NoRemovedCursor	-12164
21[	-12165
accessor	-12166
Gds	-12167
Neptune	-12168
MenuItem	-12169
PatchBaseline	-12170
ResponseRequest	-12171
Destroy	-12172
ListObject	-12173
224	-12174
AesGcm	-12175
Apache	-12176
▁support	-12177
BytesRefBuilder	-12178
mati	-12179
NotifDirect	-12180
▁constructor	-12181
Demand	-12182
TokenRequest	-12183
imsweb	-12184
Natural	-12185
▁classFile	-12186
entiles	-12187
vb	-12188
▁zero	-12189
etermin	-12190
CTVectorImpl	-12191
TypeBuilder	-12192
AddressFamily	-12193
ClientInvocation	-12194
1_1.	-12195
genorm	-12196
Neighbours	-12197
▁low	-12198
MigrationManager	-12199
team	-12200
▁prod	-12201
IFile	-12202
▁date	-12203
operator	-12204
Produce	-12205
▁component	-12206
EventManager	-12207
vna	-12208
▁search	-12209
websockets	-12210
▁getRole	-12211
RequestOptions	-12212
Shm	-12213
Wise	-12214
Threads	-12215
StateManagerImpl	-12216
Freq	-12217
IGHT	-12218
Contain	-12219
leclick	-12220
▁define	-12221
5[1]	-12222
agileclick	-12223
TreeRangeSet	-12224
▁enabled	-12225
ServerSocket	-12226
20[	-12227
49,	-12228
alesforce	-12229
Particle	-12230
▁getValues	-12231
229	-12232
ListMultimap	-12233
agging	-12234
94.<	-12235
▁port	-12236
Checks	-12237
datacache	-12238
249	-12239
ReportListing	-12240
ServiceReference	-12241
DEC	-12242
adding	-12243
equals	-12244
Postfix	-12245
▁59	-12246
IStatus	-12247
Clustering	-12248
97.<	-12249
(\	-12250
FIX	-12251
Seek	-12252
▁render	-12253
WITH	-12254
robo	-12255
EventFilter	-12256
transforms	-12257
CodeAttribute	-12258
oad	-12259
0[34	-12260
140508.	-12261
MethodCallExpr	-12262
ILED	-12263
KmsKeyId	-12264
▁getNamespaceURI	-12265
▁1000	-12266
CsmElement	-12267
$2$1:	-12268
Substatement	-12269
Go	-12270
Parts	-12271
Extent	-12272
PacketIn	-12273
VisitController	-12274
Privilege	-12275
BucketName	-12276
ErrorCodes	-12277
LY	-12278
each	-12279
DefaultNavigator	-12280
thesis	-12281
$36	-12282
servicer	-12283
ProtocolInfo	-12284
▁done	-12285
groovydoc	-12286
WithCustomKey	-12287
blocktreeords	-12288
semble	-12289
237	-12290
IOContext	-12291
▁rep	-12292
▁equal	-12293
TaskEvent	-12294
wireformat	-12295
AmazonDynamoDB	-12296
MessageFormat	-12297
HttpOutput	-12298
tible	-12299
BgpBuilder	-12300
Snippet	-12301
Ear	-12302
▁DOUBLE	-12303
CellImpl	-12304
Reversible	-12305
KieModuleCache	-12306
polyjdbc	-12307
254	-12308
lexical	-12309
AlignEnum	-12310
ResultSetNode	-12311
235	-12312
▁setCharAt	-12313
fileupload	-12314
OperationFactory	-12315
insert	-12316
▁selector	-12317
AttributeInfo	-12318
DMNModel	-12319
Pause	-12320
classic	-12321
OptionsResult	-12322
▁norm	-12323
groupst	-12324
aggingapi	-12325
resourcegroupst	-12326
streamhtmlparser	-12327
RestoreDBCluster	-12328
egistry	-12329
incremental	-12330
serviceregistry	-12331
▁getHost	-12332
▁castToType	-12333
▁BY	-12334
SocketWrapper	-12335
Excel	-12336
▁app	-12337
Symbols	-12338
War	-12339
yphenated	-12340
oxalis	-12341
Conglomerate	-12342
▁X	-12343
SeparateKVDouble	-12344
UnmodifiableLong	-12345
279	-12346
▁HE	-12347
SyntaxException	-12348
rec	-12349
AutoScalingGroup	-12350
cassandra	-12351
Experiment	-12352
LinkedTreeMap	-12353
AbstractService	-12354
_12	-12355
UnmodifiableByte	-12356
LogConfig	-12357
Dot	-12358
Special	-12359
▁cached	-12360
extras	-12361
Loaded	-12362
SiteWise	-12363
70)	-12364
Edn	-12365
▁syn	-12366
Bendable	-12367
Redelivery	-12368
Ftr	-12369
Segments	-12370
rtf	-12371
title	-12372
Conditions	-12373
ImmutableTable	-12374
ValueReference	-12375
223	-12376
101.<	-12377
▁getFactory	-12378
implementation	-12379
CheckedFunction	-12380
Physical	-12381
SeparateKVFloat	-12382
Uns	-12383
Scattered	-12384
Datatype	-12385
locking	-12386
retry	-12387
▁point	-12388
FilterImpl	-12389
sian	-12390
CoordinateSystem	-12391
)>(4,	-12392
trice	-12393
StringMap	-12394
Prof	-12395
under	-12396
Warm	-12397
Production	-12398
ASTRewrite	-12399
SortedTable	-12400
PooledConnection	-12401
zonky	-12402
Formatted	-12403
▁ru	-12404
▁sc	-12405
anonical	-12406
▁maxFill	-12407
robozonky	-12408
RED	-12409
UpdateFlow	-12410
triceo	-12411
RSyntax	-12412
75)	-12413
datum	-12414
DedicatedIp	-12415
smaliTreeWalker	-12416
RegionsStateData	-12417
JMX	-12418
MoveTo	-12419
ScalaRunTime	-12420
Localization	-12421
timent	-12422
RoundingMode	-12423
6392	-12424
GDate	-12425
CSSStyle	-12426
Listable	-12427
XmlBoolean	-12428
SmallSortedMap	-12429
ited	-12430
CTSmartTag	-12431
TextExtractor	-12432
QuartzScheduler	-12433
TransactionalMap	-12434
DAO	-12435
rink	-12436
LanguageISO	-12437
RetryingCaller	-12438
Cors	-12439
ianStemmer	-12440
AWSDeviceFarm	-12441
306	-12442
Queued	-12443
DoubleArray	-12444
Rx	-12445
reduce	-12446
ValueRange	-12447
Infl	-12448
0440\	-12449
LoggerConfig	-12450
__12	-12451
Growable	-12452
VED	-12453
AA	-12454
▁raw	-12455
Expan	-12456
UpdatedBuilder	-12457
▁setNextToken	-12458
Billing	-12459
CK	-12460
udd	-12461
anning	-12462
PostingsFormat	-12463
DirectoryService	-12464
CreateDBInstance	-12465
210	-12466
behind	-12467
RpcChannel	-12468
HtmlElement	-12469
▁getCertificate	-12470
JRPropertyChange	-12471
jpm	-12472
ethi	-12473
neethi	-12474
callSite	-12475
JvmType	-12476
Fp	-12477
RangeEndList	-12478
RangeStartList	-12479
GenericFile	-12480
▁"-	-12481
Evic	-12482
contexts	-12483
ClientProtocol	-12484
callSiteArray	-12485
804\	-12486
Visual	-12487
▁BOOLEAN	-12488
NetworkConfig	-12489
su	-12490
tiff	-12491
▁listeners	-12492
AbstractAmazonEC	-12493
AWSCloud	-12494
▁getModifiers	-12495
ndi	-12496
▁auto	-12497
ooKeeperServer	-12498
>\	-12499
AdapterFactory	-12500
71)	-12501
ToStringStyle	-12502
AmazonCloudFront	-12503
bf	-12504
Spe	-12505
OrderedHashSet	-12506
239	-12507
ASMifier	-12508
Centr	-12509
Lgroovy	-12510
ControlFlow	-12511
CharBuf	-12512
MutableSortedSet	-12513
233	-12514
Providers	-12515
RecordComponent	-12516
Chore	-12517
▁nextEntry	-12518
NodeValue	-12519
▁allocate	-12520
Ide	-12521
BlockImpl	-12522
AwsSyncClient	-12523
▁getContainer	-12524
MappingRequest	-12525
TypeDefinition	-12526
urrency	-12527
yclo	-12528
rofit	-12529
258	-12530
Linking	-12531
ConsistentHash	-12532
▁emit	-12533
ScmResult	-12534
orian	-12535
metaModel	-12536
Three	-12537
Expired	-12538
▁56	-12539
TermsReader	-12540
09.	-12541
277	-12542
JavaUtil	-12543
wagon	-12544
Behind	-12545
NodeScope	-12546
datatable	-12547
LongConsumer	-12548
BoundSet	-12549
CidrBlock	-12550
▁QU	-12551
factorspace	-12552
DstNx	-12553
gzip	-12554
tnEdn	-12555
conver	-12556
DefaultType	-12557
SimpleString	-12558
NodeFormatter	-12559
xmldsig	-12560
ActivityTask	-12561
▁getDelegate	-12562
OneofOptions	-12563
▁proxy	-12564
4)]	-12565
CastException	-12566
AttributeGroup	-12567
openapitools	-12568
BASE	-12569
wps	-12570
TaskRun	-12571
AdminRequest	-12572
PoliciesResult	-12573
▁subs	-12574
tfile	-12575
Denied	-12576
coverage	-12577
Characters	-12578
Gui	-12579
ligh	-12580
visitors	-12581
NameEnvironment	-12582
KafkaAdminClient	-12583
symbol	-12584
ChannelFuture	-12585
Constr	-12586
ServerCnxn	-12587
leep	-12588
BooleanMaps	-12589
Lexical	-12590
Primitives	-12591
▁wrapped	-12592
▁complete	-12593
HtmlParser	-12594
RefreshUser	-12595
XSL	-12596
Iterating	-12597
secure	-12598
ITER	-12599
font	-12600
▁slice	-12601
UniqueValues	-12602
ValueNumber	-12603
TypeAnnotations	-12604
JN	-12605
▁reverse	-12606
Configured	-12607
hl	-12608
234	-12609
Ptg	-12610
Rejected	-12611
Equality	-12612
GeoRegion	-12613
BNF	-12614
BO	-12615
Statements	-12616
ParserBase	-12617
ReportRequest	-12618
▁getTotal	-12619
augmentation	-12620
FactoryBuilder	-12621
Occur	-12622
FileUpload	-12623
Smoo	-12624
gression	-12625
HashTable	-12626
Define	-12627
ATNState	-12628
SSH	-12629
UTTON	-12630
Buckets	-12631
AW	-12632
acket	-12633
BigArray	-12634
DatabaseSnapshot	-12635
Mun	-12636
UTE	-12637
_1>	-12638
stic	-12639
TypeLoader	-12640
ScriptableObject	-12641
Encode	-12642
Popup	-12643
BackupPlan	-12644
DescribeAccount	-12645
NodeProxy	-12646
Peek	-12647
PipelineRequest	-12648
notes	-12649
AnnotationValue	-12650
tee	-12651
EngineVersion	-12652
ResponseImpl	-12653
CompositeNode	-12654
uring	-12655
TextEdit	-12656
bG	-12657
del	-12658
SeparateKVObj	-12659
WebAppContext	-12660
vmplugin	-12661
▁active	-12662
MailServicePb	-12663
240	-12664
99.<	-12665
JType	-12666
TextParagraph	-12667
DocumentRequest	-12668
Fold	-12669
ManagementClient	-12670
▁sw	-12671
96.<	-12672
TING	-12673
writebehind	-12674
AmazonCloudWatch	-12675
FlowStatistics	-12676
ensible	-12677
BodyImpl	-12678
SequenceId	-12679
LowerBound	-12680
19[	-12681
HFileProtos	-12682
CTPivotTable	-12683
ObjectReader	-12684
treewalker	-12685
▁getRepository	-12686
▁col	-12687
algorithm	-12688
31\	-12689
AwsIam	-12690
RuleFlow	-12691
preservation	-12692
Market	-12693
ServiceBinding	-12694
226	-12695
Minimal	-12696
Gradient	-12697
HistoryRequest	-12698
RedshiftCluster	-12699
JAXRS	-12700
JChannel	-12701
regorian	-12702
XPathFragment	-12703
itin	-12704
Linux	-12705
MatchSetRequest	-12706
SYSREG	-12707
Fun	-12708
▁registry	-12709
LoadingCache	-12710
▁getBase	-12711
ObjectSortedMaps	-12712
Jump	-12713
ores	-12714
▁template	-12715
EclipseLink	-12716
67]	-12717
FlowBuilder	-12718
228	-12719
▁real	-12720
Jersey	-12721
mm	-12722
Transmit	-12723
WriterController	-12724
Take	-12725
viritin	-12726
Overrides	-12727
238	-12728
▁currentPosition	-12729
Categories	-12730
UnsafeDirect	-12731
PackageFragment	-12732
It	-12733
IntSortedMaps	-12734
ByteSortedMaps	-12735
CharSortedMaps	-12736
LongSortedMaps	-12737
FloatSortedMaps	-12738
ShortSortedMaps	-12739
DoubleSortedMaps	-12740
2")	-12741
coordin	-12742
10[0]	-12743
ScanResponse	-12744
errorhandler	-12745
ResolverQuery	-12746
32\	-12747
▁extra	-12748
PropertySource	-12749
vpnv	-12750
cpd	-12751
SortOrder	-12752
soapencoding	-12753
BinaryReader	-12754
CoordinateAxis	-12755
Casc	-12756
oasis	-12757
ChildProperty	-12758
IAtomContainer	-12759
Glob	-12760
webtoken	-12761
Profiling	-12762
▁addError	-12763
SettingsResult	-12764
PostingsEnum	-12765
ASTree	-12766
Gregorian	-12767
ErrorManager	-12768
236	-12769
Expire	-12770
UnicastBuilder	-12771
ANNOT	-12772
StructureMembers	-12773
Mustache	-12774
ObjectLevel	-12775
232	-12776
35:	-12777
$1)>($	-12778
TestGrid	-12779
DatanodeInfo	-12780
ContainerIdProto	-12781
AttributeSource	-12782
UnmodifiableInt	-12783
Executors	-12784
BeanManager	-12785
▁getNum	-12786
ToXContent	-12787
Sorting	-12788
▁tableName	-12789
NodeLabel	-12790
TokenProto	-12791
JavaScriptObject	-12792
mom	-12793
reporters	-12794
PackageVersion	-12795
▁describe	-12796
help	-12797
Refs	-12798
Coder	-12799
BUTTON	-12800
UnitOfWorkImpl	-12801
lipUniqueValues	-12802
CTRowImpl	-12803
▁getLimit	-12804
LongSet	-12805
Eac	-12806
jpmml	-12807
StateProto	-12808
STShapeType	-12809
MappingResult	-12810
jta	-12811
JsonElement	-12812
vendor	-12813
RemoteApi	-12814
JDT	-12815
GetFs	-12816
combin	-12817
▁REQUEST	-12818
Subquery	-12819
Instrumentation	-12820
PropertyAccessor	-12821
Scram	-12822
)>(3,	-12823
guate	-12824
Selected	-12825
BrokerAPI	-12826
UpdateUser	-12827
FluentBrokerAPI	-12828
StatisticsAdmin	-12829
AH	-12830
wdm	-12831
Now	-12832
servicebinding	-12833
CTSimple	-12834
driver	-12835
▁getChannel	-12836
Recover	-12837
drFtr	-12838
Smart	-12839
debugger	-12840
AliasResult	-12841
▁58	-12842
Charsets	-12843
CtMethod	-12844
DoubleConsumer	-12845
EmptySet	-12846
SimpleNode	-12847
SelectImpl	-12848
Localizable	-12849
TreeBidiMap	-12850
DescribeFleet	-12851
Udp	-12852
▁Not	-12853
JRStyle	-12854
Highligh	-12855
Scte	-12856
Continuation	-12857
73)	-12858
_8>	-12859
AwsEc	-12860
Unordered	-12861
perm	-12862
xdgf	-12863
▁TAG	-12864
Replacer	-12865
Ecdsa	-12866
ImmutableBiMap	-12867
8$	-12868
$38	-12869
MarkedPos	-12870
▁zzMarkedPos	-12871
▁any	-12872
FlowCapable	-12873
ProjectResult	-12874
InternalXtext	-12875
231	-12876
Renam	-12877
oner	-12878
Sandbox	-12879
TreeParser	-12880
KeyProvider	-12881
num	-12882
arer	-12883
Ingress	-12884
XQueryAST	-12885
ANS	-12886
LDAP	-12887
Locals	-12888
uredArg	-12889
deep	-12890
Fraction	-12891
DoubleArrayList	-12892
Vend	-12893
HSAdmin	-12894
StreamResult	-12895
HSAdminRefresh	-12896
timeout	-12897
▁getConfig	-12898
▁yy	-12899
wrappers	-12900
DirectedGraph	-12901
abdera	-12902
▁getCapt	-12903
▁spark	-12904
GetDeployment	-12905
tik	-12906
using	-12907
TypePath	-12908
WriteLock	-12909
Discovered	-12910
HamletImpl	-12911
CharIterator	-12912
pard	-12913
volume	-12914
SessionId	-12915
JavaVersion	-12916
Artifacts	-12917
BLOCK	-12918
ahead	-12919
compressing	-12920
arcia	-12921
BatchUpdate	-12922
80)	-12923
ServletConfig	-12924
FactoryConfig	-12925
SearchRequest	-12926
Hbs	-12927
bonig	-12928
SideEffect	-12929
bonigarcia	-12930
0438\	-12931
CTFtnEdn	-12932
ContextBuilder	-12933
ProtocolFamily	-12934
Daemon	-12935
Between	-12936
ceptron	-12937
Multisets	-12938
Lob	-12939
GI	-12940
Xpath	-12941
Rollover	-12942
RegionLoadStats	-12943
▁getCapturedArg	-12944
74)	-12945
CTSc	-12946
Hashed	-12947
seable	-12948
progress	-12949
STATE	-12950
Sym	-12951
▁getFilter	-12952
CharSet	-12953
CellType	-12954
ParseTreeType	-12955
Cyclic	-12956
strict	-12957
BuiltIns	-12958
FileUtils	-12959
apptik	-12960
protoparser	-12961
Pipe	-12962
▁always	-12963
Fuseable	-12964
50]	-12965
$11:	-12966
▁getResult	-12967
idc	-12968
▁allowed	-12969
▁getDatabase	-12970
POIFS	-12971
econds	-12972
Gather	-12973
GString	-12974
actoring	-12975
▁dom	-12976
▁used	-12977
Subtype	-12978
NC	-12979
▁mode	-12980
phreak	-12981
RuleImpl	-12982
IntValueHashMap	-12983
270	-12984
Buffers	-12985
DynamoDb	-12986
International	-12987
Quotas	-12988
MappedFieldType	-12989
SingleConstraint	-12990
134.<	-12991
▁without	-12992
DoubleKeyMap	-12993
Quoted	-12994
unsafe	-12995
BufferedWriter	-12996
CTTextParagraph	-12997
11[$	-12998
best	-12999
Interpolator	-13000
ClassDefinition	-13001
JsonFormat	-13002
▁he	-13003
segmented	-13004
stubbing	-13005
▁methods	-13006
307	-13007
PDA	-13008
droid	-13009
inf	-13010
Answ	-13011
Things	-13012
▁storage	-13013
EV	-13014
0003\	-13015
VpcConfig	-13016
SetIterable	-13017
0010	-13018
__26	-13019
Reflective	-13020
Vrf	-13021
Mealy	-13022
Mutex	-13023
Tests	-13024
oneId	-13025
OpenOption	-13026
aku	-13027
▁nest	-13028
ToName	-13029
sqlgenerator	-13030
JvmTypeReference	-13031
CtField	-13032
Highlighter	-13033
fmrc	-13034
ruCache	-13035
MetadataRequest	-13036
Repres	-13037
HardSoft	-13038
PrefixTree	-13039
ables	-13040
▁44	-13041
Nodegroup	-13042
SslConnection	-13043
Fpga	-13044
comparator	-13045
aving	-13046
MethodParameter	-13047
Mat	-13048
ecess	-13049
flush	-13050
Android	-13051
Intel	-13052
akuhn	-13053
colon	-13054
SELECT	-13055
PrefixFilter	-13056
Issue	-13057
ClusterId	-13058
OriginRequest	-13059
JsDocInfo	-13060
TestSuiteBuilder	-13061
▁param	-13062
ModuleRevisionId	-13063
Await	-13064
Predefined	-13065
Munger	-13066
Recommender	-13067
Perf	-13068
Discoverer	-13069
MapOperation	-13070
Bloom	-13071
ParserDQL	-13072
TestNGMethod	-13073
APP	-13074
Validity	-13075
BaseParser	-13076
Vendor	-13077
define	-13078
GetTask	-13079
checker	-13080
InstructionList	-13081
▁printStackTrace	-13082
)>(93)	-13083
SelectStatement	-13084
SMALL	-13085
▁directory	-13086
Numbers	-13087
CTPercentage	-13088
98.<	-13089
sulated	-13090
LambdaExtractor	-13091
EditorSupport	-13092
Transporter	-13093
JsDocInfoParser	-13094
▁other	-13095
HttpUrl	-13096
Sequences	-13097
XMLPersistence	-13098
TaggedFields	-13099
results	-13100
860	-13101
FILE	-13102
1()>()	-13103
medium	-13104
StateTransfer	-13105
XmlObjectBase	-13106
EciesAeadHkdf	-13107
sug	-13108
ingest	-13109
▁getIs	-13110
runn	-13111
▁filters	-13112
▁qual	-13113
150304.	-13114
unixTimestamp	-13115
MapUnmarshaller	-13116
Click	-13117
Average	-13118
WriteHelper	-13119
SourcePosition	-13120
Strategies	-13121
TagType	-13122
XSSFSheet	-13123
Pag	-13124
hpsf	-13125
AccessException	-13126
UserInformation	-13127
pkg	-13128
remoteapi	-13129
▁extension	-13130
MessageBuilder	-13131
SignatureVisitor	-13132
aff	-13133
send	-13134
etunnel	-13135
iotsecur	-13136
etunneling	-13137
GetTable	-13138
▁symbolTable	-13139
ioteventsdata	-13140
HikariProxy	-13141
LevelClient	-13142
▁loc	-13143
LABEL	-13144
HighLevelClient	-13145
bard	-13146
ancy	-13147
▁327	-13148
▁statement	-13149
lists	-13150
SafeHeapReader	-13151
DataSerializable	-13152
Jan	-13153
SnowballProgram	-13154
▁getStream	-13155
GeneratedVaadin	-13156
Moder	-13157
▁DATE	-13158
0627\	-13159
103.<	-13160
valbard	-13161
Sizes	-13162
based	-13163
Malformed	-13164
FailedException	-13165
▁LE	-13166
hardsoft	-13167
ValueCursor	-13168
SourceWriter	-13169
AccessKey	-13170
false	-13171
dircache	-13172
▁copyFrom	-13173
MemberValue	-13174
invalidation	-13175
ooser	-13176
SelectorConfig	-13177
Sse	-13178
inement	-13179
CharBigList	-13180
▁when	-13181
Minutes	-13182
OW	-13183
Normal	-13184
ServiceAction	-13185
245	-13186
Digit	-13187
dio	-13188
DoubleDouble	-13189
TransactionId	-13190
fiable	-13191
▁encoding	-13192
IntBigList	-13193
ByteBigList	-13194
LongBigList	-13195
FloatBigList	-13196
ShortBigList	-13197
DoubleBigList	-13198
InternalError	-13199
RubyInteger	-13200
invalid	-13201
HashEntry	-13202
StoreConfig	-13203
slim	-13204
DatabaseObject	-13205
ECK	-13206
jaxp	-13207
FieldMask	-13208
TargetsRequest	-13209
Funnel	-13210
Maximum	-13211
PackagePart	-13212
ServiceProvider	-13213
CTPImpl	-13214
EnvImpl	-13215
ManagerFactory	-13216
XtextGenerator	-13217
Mean	-13218
0435\	-13219
deleg	-13220
Substitutor	-13221
Consum	-13222
subnet	-13223
BytesReference	-13224
OgnlContext	-13225
Dvb	-13226
Jms	-13227
CTFont	-13228
PendingModified	-13229
▁isEnabled	-13230
dap	-13231
widget	-13232
Keywords	-13233
Offsets	-13234
mustachejava	-13235
▁getClassName	-13236
COUNT	-13237
triggers	-13238
FindingsRequest	-13239
▁getAccountId	-13240
RequestException	-13241
FlowTable	-13242
▁getPartition	-13243
CAL	-13244
AddGroup	-13245
▁PUBLIC	-13246
Throughput	-13247
Drl	-13248
Center	-13249
▁sequence	-13250
Requested	-13251
RemoveGroup	-13252
JC	-13253
17:	-13254
Occurrences	-13255
FeatureChild	-13256
urkishStemmer	-13257
reftable	-13258
▁putMethod	-13259
ClasspathEntry	-13260
LogAggregation	-13261
ende	-13262
geotiff	-13263
HumanTask	-13264
SortField	-13265
TrackingVariable	-13266
GroupsFor	-13267
▁getAction	-13268
StreamDecoder	-13269
▁78	-13270
241	-13271
__28	-13272
CloneVisitor	-13273
Rab	-13274
ketch	-13275
TokenBuffer	-13276
▁getPreferred	-13277
ert	-13278
permadmin	-13279
296	-13280
▁removeAll	-13281
AccountResult	-13282
FsPermission	-13283
▁q	-13284
composite	-13285
NodeIterator	-13286
svalbard	-13287
HistoryDataProto	-13288
$12:	-13289
Faked	-13290
Expand	-13291
atives	-13292
DataTable	-13293
HardMedium	-13294
HardMediumSoft	-13295
WriteBehind	-13296
Compan	-13297
CompareFilter	-13298
stored	-13299
ObjectMaps	-13300
]",	-13301
Modifiable	-13302
▁term	-13303
tokenSet	-13304
)>(44)	-13305
KeysView	-13306
MigrationService	-13307
Reassign	-13308
iry	-13309
ForkJoin	-13310
▁toByteArray	-13311
FloatArrayList	-13312
▁55	-13313
JButton	-13314
TableResponse	-13315
UpdateContainer	-13316
Integral	-13317
Triggers	-13318
UserGroup	-13319
FVComparison	-13320
22[	-13321
Solid	-13322
TypeProto	-13323
TriFunction	-13324
MetadataProto	-13325
MembersRequest	-13326
DocumentBuilder	-13327
64$	-13328
JJTXPath	-13329
▁refresh	-13330
JJTXPathState	-13331
▁temp	-13332
▁compo	-13333
Ignored	-13334
ased	-13335
▁bot	-13336
Salesforce	-13337
Noop	-13338
CloudFormation	-13339
ASH	-13340
JobRun	-13341
impor	-13342
ClassHelper	-13343
ingPolicy	-13344
▁setField	-13345
attachment	-13346
ORDER	-13347
CTPreset	-13348
▁isDirectory	-13349
texport	-13350
bendable	-13351
importexport	-13352
ValuesBuilder	-13353
recon	-13354
ImmutableOpen	-13355
NodeLabels	-13356
criminator	-13357
100.<	-13358
OpenApi	-13359
Caffeine	-13360
Lost	-13361
BuiltInsFor	-13362
sable	-13363
CTHdrFtr	-13364
8[$	-13365
Corrupt	-13366
FutureImpl	-13367
RemoteApiPb	-13368
AnnotationType	-13369
schemaframework	-13370
Prox	-13371
Jndi	-13372
ScannerImpl	-13373
ScriptEngine	-13374
ObjectEmptyMap	-13375
▁getRow	-13376
▁script	-13377
Initiate	-13378
MessageBatch	-13379
$19	-13380
50,	-13381
243	-13382
NaN	-13383
child	-13384
RateBased	-13385
ToStringBuilder	-13386
Screen	-13387
CodeSigning	-13388
114.<	-13389
KieSession	-13390
QueryException	-13391
Smooth	-13392
JSError	-13393
AliasesRequest	-13394
MP	-13395
Ori	-13396
brid	-13397
xsbti	-13398
CTRImpl	-13399
Negative	-13400
Uint	-13401
inity	-13402
Quality	-13403
▁getLastUpdated	-13404
▁separator	-13405
76)	-13406
sibility	-13407
gre	-13408
regression	-13409
DeviceRequest	-13410
liers	-13411
JRXmlWriteHelper	-13412
▁tra	-13413
Canonical	-13414
setup	-13415
Trajectory	-13416
ModelBuilding	-13417
lied	-13418
Socks	-13419
WebTarget	-13420
▁alias	-13421
NonVisual	-13422
▁putInt	-13423
ElementParser	-13424
TransportService	-13425
26[	-13426
Plex	-13427
OnDemand	-13428
Implemented	-13429
accumulator	-13430
transformer	-13431
▁firstEntry	-13432
trie	-13433
ecard	-13434
crimination	-13435
ERY	-13436
CleanerChore	-13437
ATTRIB	-13438
JRChart	-13439
▁getSubnet	-13440
RangeFilter	-13441
▁getReturnType	-13442
BigArrayBigList	-13443
mu	-13444
AMR	-13445
6\	-13446
Profiles	-13447
DED	-13448
ClusterSearch	-13449
ShortCircuitShm	-13450
olap	-13451
Epoch	-13452
KieBase	-13453
BlobStore	-13454
CacheTopology	-13455
ParserException	-13456
▁getResponse	-13457
▁getReference	-13458
itten	-13459
Sensitive	-13460
DomainResult	-13461
Encapsulated	-13462
IntKeyMap	-13463
large	-13464
meters	-13465
certvalidator	-13466
▁schedule	-13467
MOD	-13468
BundleInfo	-13469
ScheduleAction	-13470
Brain	-13471
DoubleValue	-13472
Inclusive	-13473
CompactSyntax	-13474
Drift	-13475
hardmedium	-13476
CTCommentImpl	-13477
hardmediumsoft	-13478
JJCalls	-13479
ContainerProto	-13480
RSyntaxTextArea	-13481
Answer	-13482
FieldNode	-13483
SocketOption	-13484
DecisionTable	-13485
Addresses	-13486
▁getRegion	-13487
ResultColumnList	-13488
▁FLOAT	-13489
Cs	-13490
TargetRequest	-13491
Idempot	-13492
loopj	-13493
▁remote	-13494
reflections	-13495
StrictOptimized	-13496
signedcontent	-13497
ClassDeclaration	-13498
JMS	-13499
ReplicationGroup	-13500
forEach	-13501
calculation	-13502
Xsb	-13503
ClassFileReader	-13504
POIXML	-13505
MoveFrom	-13506
DescribeUser	-13507
DocumentsWriter	-13508
ajax	-13509
37418	-13510
snappy	-13511
51]	-13512
▁expr	-13513
MutableSortedBag	-13514
308	-13515
yme	-13516
_1__5	-13517
ond	-13518
MemoryAccessor	-13519
NumericDocValues	-13520
ymeleaf	-13521
▁getFull	-13522
Tokeniser	-13523
242	-13524
▁"(	-13525
LETE	-13526
IdBuilder	-13527
PublicAccess	-13528
Attempts	-13529
Positions	-13530
ReferenceMaps	-13531
251	-13532
BKDWriter	-13533
▁isArray	-13534
ArrayBinding	-13535
OutputSettings	-13536
sugar	-13537
runners	-13538
▁getError	-13539
AbstractJava	-13540
SECONDS	-13541
Contexts	-13542
ComputationState	-13543
▁src	-13544
_20	-13545
▁addProperty	-13546
Days	-13547
▁level	-13548
ycler	-13549
TooMany	-13550
RoutingProfile	-13551
384	-13552
59,	-13553
WebClient	-13554
MessageRequest	-13555
crm	-13556
Duty	-13557
istics	-13558
GuardDuty	-13559
saaj	-13560
TagsTo	-13561
Workteam	-13562
Player	-13563
sugarcrm	-13564
SourcePrinter	-13565
inbound	-13566
HtmlWriter	-13567
▁MM	-13568
$800(	-13569
OpCode	-13570
NotebookInstance	-13571
Boxes	-13572
IndexMetaData	-13573
SubtreeStream	-13574
wan	-13575
RuleNode	-13576
▁resources	-13577
Instrumented	-13578
ValuesSource	-13579
▁classFileOffset	-13580
ByteCode	-13581
SplitBrain	-13582
LEN	-13583
accept	-13584
Fc	-13585
▁SE	-13586
SecurityHub	-13587
▁readUTF	-13588
EventsProtos	-13589
SchemaResult	-13590
CTORY	-13591
level	-13592
Enforcer	-13593
InSeconds	-13594
datastructure	-13595
brevi	-13596
GetDefault	-13597
Compressing	-13598
DBProxy	-13599
DataBroker	-13600
Ole	-13601
GroovyLexer	-13602
ILLI	-13603
UpdateFunction	-13604
kdir	-13605
▁condition	-13606
53]	-13607
EWAH	-13608
wadl	-13609
mojos	-13610
Declare	-13611
ResolvedTypes	-13612
RemoteRepository	-13613
scram	-13614
RubyIO	-13615
ReadRequest	-13616
TypeHandler	-13617
FormatException	-13618
root	-13619
Fine	-13620
11[0]	-13621
JCR	-13622
140410.	-13623
ModuleInfo	-13624
▁className	-13625
SearchGuard	-13626
▁11:	-13627
BA	-13628
jsse	-13629
graphs	-13630
Ldap	-13631
▁evaluate	-13632
MessageFactory	-13633
Stale	-13634
Synonym	-13635
TextElement	-13636
102.<	-13637
StringTemplate	-13638
QueryTranslator	-13639
Immediate	-13640
58,	-13641
▁safe	-13642
MessageInfo	-13643
78)	-13644
Dim	-13645
AMRM	-13646
9999	-13647
▁getRaw	-13648
MapReduceProtos	-13649
▁specified	-13650
MappingException	-13651
52,	-13652
communication	-13653
Nullness	-13654
252	-13655
6[1]	-13656
cyclo	-13657
NamedNodeMap	-13658
>"	-13659
CTPath	-13660
▁-4	-13661
DEFAULT	-13662
MapImpl	-13663
JA	-13664
4[2]	-13665
__13	-13666
compose	-13667
Identities	-13668
▁-21474836	-13669
APNS	-13670
cyclops	-13671
Beanstalk	-13672
Sentiment	-13673
PATH	-13674
105.<	-13675
▁initial	-13676
cyclopsgroup	-13677
▁toImmutable	-13678
253	-13679
encode	-13680
RoboMaker	-13681
ProductRequest	-13682
SqlGenerator	-13683
EmptyList	-13684
XMLDirectMapping	-13685
topic	-13686
VirtualNode	-13687
DeniedException	-13688
refresh	-13689
ResolvedMember	-13690
CommandProcessor	-13691
xbx	-13692
▁verify	-13693
ObjectCache	-13694
Customization	-13695
▁CL	-13696
delegate	-13697
Counts	-13698
Nature	-13699
Literals	-13700
0[36	-13701
$2$1	-13702
/2001/	-13703
npe	-13704
LongAdder	-13705
▁"\"	-13706
▁WARN	-13707
Warmup	-13708
optsimple	-13709
InternalEntry	-13710
XMLComposite	-13711
MultipartUpload	-13712
305	-13713
ACHE	-13714
335	-13715
opencsv	-13716
ColumnImpl	-13717
ListAccount	-13718
ila	-13719
TreeRangeMap	-13720
ArraySeq	-13721
Keep	-13722
HqlSql	-13723
Studio	-13724
Locations	-13725
Circle	-13726
278	-13727
304	-13728
151.<	-13729
PartitionState	-13730
touch	-13731
Office	-13732
LruCache	-13733
▁modified	-13734
RoleRequest	-13735
BoxesRunTime	-13736
▁getAnnotations	-13737
Times	-13738
0[35	-13739
▁unwrap	-13740
Affected	-13741
CTScheme	-13742
NodeInfo	-13743
ASCI	-13744
ETable	-13745
RubyDate	-13746
StringReader	-13747
MultiplexProgram	-13748
ModuleMetadata	-13749
▁callGetProperty	-13750
▁dat	-13751
FeatureType	-13752
Elb	-13753
▁107	-13754
106.<	-13755
AMETER	-13756
▁bottom	-13757
8")	-13758
140616.	-13759
Normalization	-13760
izing	-13761
▁setStatus	-13762
maf	-13763
RANGE	-13764
SmileParser	-13765
GetRegionInfo	-13766
160314.	-13767
▁need	-13768
Optimize	-13769
ListApplication	-13770
ElasticBeanstalk	-13771
5)]	-13772
aclass	-13773
▁helper	-13774
You	-13775
▁getGroup	-13776
Datasource	-13777
LifecycleEvent	-13778
ModifierVisitor	-13779
xact	-13780
CSSProperty	-13781
▁jjmatchedKind	-13782
URLRequest	-13783
ToPointInTime	-13784
KeyedObjectPool	-13785
blueprint	-13786
FactoryData	-13787
TreeWalk	-13788
▁api	-13789
SourceBuilder	-13790
CollectionType	-13791
▁getIdentifier	-13792
55]	-13793
users	-13794
▁replaceAll	-13795
RESULT	-13796
▁getHeader	-13797
$2(	-13798
erc	-13799
269	-13800
FOR	-13801
WALKey	-13802
RetryPolicy	-13803
interception	-13804
TaskDefinition	-13805
▁getServer	-13806
Interactive	-13807
Mater	-13808
▁isNull	-13809
Where	-13810
Flusher	-13811
▁getItem	-13812
udc	-13813
etto	-13814
/2006/	-13815
CodeFormat	-13816
▁getEntity	-13817
VolumeBuilder	-13818
Apr	-13819
801\	-13820
SortedSets	-13821
storedlogic	-13822
TypeConverters	-13823
$600(	-13824
RTextArea	-13825
NE	-13826
zx	-13827
▁fram	-13828
▁isPresent	-13829
StaticScope	-13830
Cpp	-13831
SubMonitor	-13832
ParallelIterable	-13833
▁getEnabled	-13834
39:	-13835
▁-1)	-13836
Trait	-13837
BaseDescr	-13838
discrimination	-13839
repl	-13840
▁PATH	-13841
commander	-13842
37:	-13843
uncy	-13844
Backing	-13845
▁provided	-13846
jcommander	-13847
▁getRoleArn	-13848
ConcurrentLinked	-13849
FFER	-13850
Extract	-13851
AWSOrganizations	-13852
nexthop	-13853
cmp	-13854
BlockSet	-13855
parsetree	-13856
BundleFile	-13857
srcgen	-13858
▁getOperation	-13859
▁assign	-13860
▁returnType	-13861
AWSIotClient	-13862
myc	-13863
TraceEnabled	-13864
▁CO	-13865
CTRuby	-13866
mycila	-13867
reconstr	-13868
▁lastEntry	-13869
383	-13870
reply	-13871
CTHsl	-13872
membership	-13873
287	-13874
ExecRow	-13875
Jobs	-13876
)>("0	-13877
Controls	-13878
Markdown	-13879
▁identity	-13880
JNDI	-13881
Rendering	-13882
▁endElement	-13883
▁getSnapshot	-13884
metaclass	-13885
ArrayQueue	-13886
imited	-13887
interpol	-13888
▁readable	-13889
decoration	-13890
LifecycleState	-13891
MetadataBuilding	-13892
▁getEnvironment	-13893
BeginTransaction	-13894
LOSE	-13895
ober	-13896
Currency	-13897
Ordinals	-13898
toString	-13899
menu	-13900
▁ALL	-13901
seman	-13902
InterceptorChain	-13903
▁12:	-13904
Realtime	-13905
blocking	-13906
deployer	-13907
frastruct	-13908
stratio	-13909
XmlCursor	-13910
BeanLogger	-13911
ObjectStream	-13912
inboundhandler	-13913
=\	-13914
muhl	-13915
muhlner	-13916
obermuhlner	-13917
frastructure	-13918
▁getCanonical	-13919
Limited	-13920
CTSystem	-13921
ScalingPolicy	-13922
WK	-13923
IPv	-13924
Greater	-13925
MeterRegistry	-13926
mux	-13927
RecoveryScanner	-13928
prefs	-13929
triang	-13930
AndPermissions	-13931
Angle	-13932
MethodGen	-13933
EntityProto	-13934
Cdi	-13935
quiv	-13936
SchemaVersion	-13937
PropertyList	-13938
RoutingTable	-13939
▁containsValue	-13940
$13:	-13941
Byoip	-13942
VpnInstance	-13943
RaftKVDatabase	-13944
WT	-13945
Glacier	-13946
EventData	-13947
ruleunit	-13948
DeleteResponse	-13949
Domin	-13950
markup	-13951
AConstant	-13952
ingService	-13953
Initialize	-13954
UsagePlan	-13955
NativeQuery	-13956
localsearch	-13957
StackMapTable	-13958
Iot	-13959
bose	-13960
allocator	-13961
FileWriter	-13962
InternalServer	-13963
JavaFileObject	-13964
DexFile	-13965
BufferedSource	-13966
UpdatableQHash	-13967
Identifiable	-13968
OfferingsRequest	-13969
▁NotAConstant	-13970
Cube	-13971
RegExpTree	-13972
HistoryEvent	-13973
UMENT	-13974
Outpost	-13975
▁1024	-13976
▁getSuperclass	-13977
77)	-13978
Exclusion	-13979
declmime	-13980
FastEntrySet	-13981
FilterRequest	-13982
UpdatableLHash	-13983
27[	-13984
0[37	-13985
Pooling	-13986
jetlang	-13987
INDEX	-13988
ominal	-13989
InterfaceClass	-13990
Blue	-13991
Namespaces	-13992
AbstractMemory	-13993
durable	-13994
ObjectQuery	-13995
ObjCollection	-13996
fsm	-13997
ima	-13998
AwsElb	-13999
DEF	-14000
GroupInfo	-14001
InvalidInput	-14002
IRScope	-14003
▁constantPool	-14004
Mpeg	-14005
__14	-14006
)>("\"")	-14007
267	-14008
Clip	-14009
CTGroup	-14010
280	-14011
INUE	-14012
▁60	-14013
Mailbox	-14014
Eh	-14015
jpard	-14016
Spacing	-14017
jpardus	-14018
SearchPhase	-14019
hy	-14020
290	-14021
GroovySource	-14022
ClientMapProxy	-14023
▁-5	-14024
Deprecation	-14025
Proc	-14026
LeafNode	-14027
305.	-14028
▁wait	-14029
JsonSchema	-14030
odetic	-14031
FlowRemoved	-14032
pli	-14033
▁shaded	-14034
BaseNode	-14035
ManagerBase	-14036
ByoipCidr	-14037
projectinfo	-14038
ParallelKVInt	-14039
libg	-14040
CTTxbx	-14041
ercion	-14042
CastExpression	-14043
Attende	-14044
Finalize	-14045
QUAL	-14046
quis	-14047
OrNull	-14048
counters	-14049
XmlString	-14050
retainAll	-14051
Conversions	-14052
ImportReference	-14053
INK	-14054
Saga	-14055
TimedQuota	-14056
▁getAddress	-14057
ambi	-14058
DataStream	-14059
ParallelKVChar	-14060
ParallelKVShort	-14061
soup	-14062
codes	-14063
TypeResult	-14064
▁getBuilder	-14065
AmazonNeptune	-14066
▁50	-14067
Geodetic	-14068
Spoon	-14069
ImageResult	-14070
eeded	-14071
▁removedValue	-14072
Throttling	-14073
TagStart	-14074
UnifiedSetWith	-14075
Boxed	-14076
asy	-14077
tiguous	-14078
onedDateTime	-14079
urefire	-14080
261	-14081
SPAN	-14082
audit	-14083
CallQueue	-14084
Forwarder	-14085
SmileGenerator	-14086
LogDir	-14087
LocalTime	-14088
ListChannel	-14089
TD	-14090
▁getDevice	-14091
CTFtnEdnImpl	-14092
ContextEntry	-14093
_0__4	-14094
slt	-14095
ParseDetail	-14096
SettingsImpl	-14097
130.<	-14098
WindowExecution	-14099
▁len	-14100
HeaderFooter	-14101
coordination	-14102
EvictionConfig	-14103
RequestHeader	-14104
CommitResponse	-14105
Tele	-14106
EncapEth	-14107
TextRegion	-14108
applications	-14109
RecoveredType	-14110
metering	-14111
Entitlement	-14112
InternalFloat	-14113
InternalDouble	-14114
CTMarkupRange	-14115
inger	-14116
Pty	-14117
RubyBoolean	-14118
Sentence	-14119
EReference	-14120
EntityRecognizer	-14121
ValueSet	-14122
ASCII	-14123
82)	-14124
▁REST	-14125
▁getImplClass	-14126
246	-14127
eis	-14128
▁GET	-14129
▁JAVA	-14130
CtType	-14131
Reboot	-14132
)>(5)	-14133
entification	-14134
introspection	-14135
Aggregations	-14136
DynamoDbTable	-14137
MathModification	-14138
260	-14139
▁show	-14140
ReplicationLoad	-14141
GetErasureCoding	-14142
ticipant	-14143
AbstractLazy	-14144
kai	-14145
Contiguous	-14146
PATTERN	-14147
IntHashSet	-14148
TryStatement	-14149
Sus	-14150
Glue	-14151
ServletWriter	-14152
▁OBJECT	-14153
RegexPatternSet	-14154
▁noRemoved	-14155
ADDRESS	-14156
AWSLambda	-14157
▁getStartTime	-14158
▁isTraceEnabled	-14159
$4>	-14160
IndexResponse	-14161
SwitchExpression	-14162
276	-14163
Restric	-14164
Interception	-14165
DoubleCollection	-14166
Orientation	-14167
infra	-14168
Readers	-14169
NamePart	-14170
Misc	-14171
Citation	-14172
ANNOTATION	-14173
infrautils	-14174
Pee	-14175
tw	-14176
$30	-14177
Vars	-14178
ByteKeyMap	-14179
UnsignedInt	-14180
CTTcImpl	-14181
FileVisit	-14182
CTBodyImpl	-14183
DisplayName	-14184
dump	-14185
IsNotNull	-14186
▁77	-14187
LeafRef	-14188
inputBuffer	-14189
bitmask	-14190
AuthorizerResult	-14191
rect	-14192
StateEvent	-14193
KinesisFirehose	-14194
bb	-14195
lan	-14196
RecordTypes	-14197
▁nl	-14198
107.<	-14199
RuleModel	-14200
cu	-14201
Acquire	-14202
IOUtils	-14203
ypo	-14204
ITest	-14205
XClass	-14206
CommitRequest	-14207
GN	-14208
XmlConfiguration	-14209
sakai	-14210
simpleImpl	-14211
REST	-14212
289	-14213
Sig	-14214
Faces	-14215
ShareRequest	-14216
ResponseResult	-14217
MultiRowMutation	-14218
Surefire	-14219
ContentSummary	-14220
)[7]	-14221
Determin	-14222
CharKeyMap	-14223
LongKeyMap	-14224
LongHashSet	-14225
ShortKeyMap	-14226
MemberValuePair	-14227
84)	-14228
▁nan	-14229
▁SO	-14230
0[38	-14231
sasl	-14232
Ellip	-14233
▁getScope	-14234
activation	-14235
Unlock	-14236
rawlable	-14237
bitmap	-14238
PluralAttribute	-14239
synchron	-14240
AuthorityFactory	-14241
PatternConverter	-14242
compare	-14243
RubyEnumer	-14244
ResponseTime	-14245
▁removeEntry	-14246
272	-14247
DataValidation	-14248
$14:	-14249
Fraud	-14250
buffered	-14251
FraudDetector	-14252
ParameterList	-14253
AwsDynamoDbTable	-14254
▁reserved	-14255
▁configure	-14256
SecurityGroups	-14257
TrainingJob	-14258
XMLDescriptor	-14259
PDF	-14260
JSONWriter	-14261
datatransfer	-14262
posed	-14263
TopicRule	-14264
CTHdrFtrImpl	-14265
ValueMapping	-14266
299	-14267
▁getComment	-14268
PropertyImpl	-14269
HTMLElement	-14270
UsageRequest	-14271
sakaiproject	-14272
TAG	-14273
TunIpv	-14274
BeanDeserializer	-14275
263	-14276
inlin	-14277
[...]
